#include "model_hum.h"

// Keep model aligned to 8 bytes to guarantee aligned 64-bit accesses.
alignas(8) const unsigned char modell_cnn_hum[] = {
  0x1c, 0x00, 0x00, 0x00, 0x54, 0x46, 0x4c, 0x33, 0x14, 0x00, 0x20, 0x00,
  0x1c, 0x00, 0x18, 0x00, 0x14, 0x00, 0x10, 0x00, 0x0c, 0x00, 0x00, 0x00,
  0x08, 0x00, 0x04, 0x00, 0x14, 0x00, 0x00, 0x00, 0x1c, 0x00, 0x00, 0x00,
  0x84, 0x00, 0x00, 0x00, 0xdc, 0x00, 0x00, 0x00, 0x74, 0x09, 0x00, 0x00,
  0x84, 0x09, 0x00, 0x00, 0x50, 0x13, 0x00, 0x00, 0x03, 0x00, 0x00, 0x00,
  0x01, 0x00, 0x00, 0x00, 0x04, 0x00, 0x00, 0x00, 0x36, 0xf5, 0xff, 0xff,
  0x0c, 0x00, 0x00, 0x00, 0x1c, 0x00, 0x00, 0x00, 0x3c, 0x00, 0x00, 0x00,
  0x0f, 0x00, 0x00, 0x00, 0x73, 0x65, 0x72, 0x76, 0x69, 0x6e, 0x67, 0x5f,
  0x64, 0x65, 0x66, 0x61, 0x75, 0x6c, 0x74, 0x00, 0x01, 0x00, 0x00, 0x00,
  0x04, 0x00, 0x00, 0x00, 0x98, 0xff, 0xff, 0xff, 0x12, 0x00, 0x00, 0x00,
  0x04, 0x00, 0x00, 0x00, 0x08, 0x00, 0x00, 0x00, 0x6f, 0x75, 0x74, 0x70,
  0x75, 0x74, 0x5f, 0x30, 0x00, 0x00, 0x00, 0x00, 0x01, 0x00, 0x00, 0x00,
  0x04, 0x00, 0x00, 0x00, 0x36, 0xf7, 0xff, 0xff, 0x04, 0x00, 0x00, 0x00,
  0x05, 0x00, 0x00, 0x00, 0x69, 0x6e, 0x70, 0x75, 0x74, 0x00, 0x00, 0x00,
  0x02, 0x00, 0x00, 0x00, 0x34, 0x00, 0x00, 0x00, 0x04, 0x00, 0x00, 0x00,
  0xdc, 0xff, 0xff, 0xff, 0x15, 0x00, 0x00, 0x00, 0x04, 0x00, 0x00, 0x00,
  0x13, 0x00, 0x00, 0x00, 0x43, 0x4f, 0x4e, 0x56, 0x45, 0x52, 0x53, 0x49,
  0x4f, 0x4e, 0x5f, 0x4d, 0x45, 0x54, 0x41, 0x44, 0x41, 0x54, 0x41, 0x00,
  0x08, 0x00, 0x0c, 0x00, 0x08, 0x00, 0x04, 0x00, 0x08, 0x00, 0x00, 0x00,
  0x14, 0x00, 0x00, 0x00, 0x04, 0x00, 0x00, 0x00, 0x13, 0x00, 0x00, 0x00,
  0x6d, 0x69, 0x6e, 0x5f, 0x72, 0x75, 0x6e, 0x74, 0x69, 0x6d, 0x65, 0x5f,
  0x76, 0x65, 0x72, 0x73, 0x69, 0x6f, 0x6e, 0x00, 0x16, 0x00, 0x00, 0x00,
  0x94, 0x08, 0x00, 0x00, 0x8c, 0x08, 0x00, 0x00, 0x54, 0x08, 0x00, 0x00,
  0x14, 0x08, 0x00, 0x00, 0x00, 0x08, 0x00, 0x00, 0xe4, 0x07, 0x00, 0x00,
  0xb4, 0x04, 0x00, 0x00, 0xb4, 0x03, 0x00, 0x00, 0x68, 0x03, 0x00, 0x00,
  0x00, 0x01, 0x00, 0x00, 0xe8, 0x00, 0x00, 0x00, 0xd4, 0x00, 0x00, 0x00,
  0xcc, 0x00, 0x00, 0x00, 0xc4, 0x00, 0x00, 0x00, 0xbc, 0x00, 0x00, 0x00,
  0xb4, 0x00, 0x00, 0x00, 0xac, 0x00, 0x00, 0x00, 0xa4, 0x00, 0x00, 0x00,
  0x9c, 0x00, 0x00, 0x00, 0x94, 0x00, 0x00, 0x00, 0x74, 0x00, 0x00, 0x00,
  0x04, 0x00, 0x00, 0x00, 0x02, 0xf8, 0xff, 0xff, 0x04, 0x00, 0x00, 0x00,
  0x60, 0x00, 0x00, 0x00, 0x0c, 0x00, 0x00, 0x00, 0x08, 0x00, 0x0e, 0x00,
  0x08, 0x00, 0x04, 0x00, 0x08, 0x00, 0x00, 0x00, 0x10, 0x00, 0x00, 0x00,
  0x28, 0x00, 0x00, 0x00, 0x00, 0x00, 0x06, 0x00, 0x08, 0x00, 0x04, 0x00,
  0x06, 0x00, 0x00, 0x00, 0x04, 0x00, 0x00, 0x00, 0x01, 0x00, 0x00, 0x00,
  0xea, 0x03, 0x00, 0x00, 0x0c, 0x00, 0x18, 0x00, 0x14, 0x00, 0x10, 0x00,
  0x0c, 0x00, 0x04, 0x00, 0x0c, 0x00, 0x00, 0x00, 0x31, 0x9d, 0xbe, 0x2d,
  0x26, 0x16, 0xc7, 0x4f, 0x02, 0x00, 0x00, 0x00, 0x02, 0x00, 0x00, 0x00,
  0x04, 0x00, 0x00, 0x00, 0x06, 0x00, 0x00, 0x00, 0x32, 0x2e, 0x31, 0x39,
  0x2e, 0x30, 0x00, 0x00, 0x6e, 0xf8, 0xff, 0xff, 0x04, 0x00, 0x00, 0x00,
  0x10, 0x00, 0x00, 0x00, 0x31, 0x2e, 0x31, 0x30, 0x2e, 0x30, 0x00, 0x00,
  0x00, 0x00, 0x00, 0x00, 0x00, 0x00, 0x00, 0x00, 0x98, 0xee, 0xff, 0xff,
  0x9c, 0xee, 0xff, 0xff, 0xa0, 0xee, 0xff, 0xff, 0xa4, 0xee, 0xff, 0xff,
  0xa8, 0xee, 0xff, 0xff, 0xac, 0xee, 0xff, 0xff, 0xb0, 0xee, 0xff, 0xff,
  0xb4, 0xee, 0xff, 0xff, 0xaa, 0xf8, 0xff, 0xff, 0x04, 0x00, 0x00, 0x00,
  0x04, 0x00, 0x00, 0x00, 0xfd, 0xff, 0xff, 0xff, 0xba, 0xf8, 0xff, 0xff,
  0x04, 0x00, 0x00, 0x00, 0x08, 0x00, 0x00, 0x00, 0xff, 0xff, 0xff, 0xff,
  0x0a, 0x00, 0x00, 0x00, 0xce, 0xf8, 0xff, 0xff, 0x04, 0x00, 0x00, 0x00,
  0x58, 0x02, 0x00, 0x00, 0x72, 0x83, 0x3b, 0xbd, 0xa5, 0x06, 0x3d, 0xbe,
  0x48, 0x0d, 0xed, 0x3c, 0x05, 0x2f, 0x90, 0x3d, 0xb9, 0x5b, 0x31, 0x3e,
  0xb7, 0x01, 0xbe, 0x3c, 0x5c, 0x0d, 0x5b, 0xbd, 0xe3, 0x7d, 0x76, 0x3c,
  0x36, 0xa2, 0x07, 0x3e, 0x7b, 0x67, 0x40, 0x3d, 0x85, 0xa2, 0xaa, 0x3d,
  0x88, 0x57, 0xa0, 0xbd, 0xde, 0x6a, 0x86, 0xbe, 0x15, 0x2a, 0x12, 0xbf,
  0xa3, 0x09, 0x10, 0xbf, 0x01, 0x13, 0x5d, 0x3e, 0xbc, 0xb0, 0x0e, 0x3e,
  0x54, 0x03, 0xd7, 0x3e, 0x8e, 0x88, 0x1f, 0x3f, 0x9c, 0xf9, 0xcf, 0xbe,
  0xac, 0x34, 0x12, 0x3c, 0x42, 0xee, 0xbd, 0x3d, 0xa8, 0xea, 0x9b, 0xbc,
  0x6b, 0xad, 0xba, 0xbb, 0xbe, 0x52, 0x71, 0xbc, 0xe9, 0x40, 0x22, 0x3d,
  0x9a, 0x8b, 0xfa, 0xbc, 0xe5, 0x1c, 0x00, 0xbd, 0xa9, 0x97, 0xa1, 0xbd,
  0x5f, 0xc7, 0x0b, 0xbd, 0x27, 0xd3, 0x63, 0x3e, 0xff, 0x80, 0x2a, 0x3e,
  0xd1, 0x84, 0xad, 0xbe, 0x2f, 0xd9, 0xa4, 0x3e, 0xe9, 0xa8, 0xd2, 0x3e,
  0x21, 0xb7, 0x04, 0xbf, 0x0a, 0x8f, 0xe2, 0xbe, 0xb9, 0x83, 0xd6, 0x3e,
  0x4f, 0xef, 0xe2, 0x3c, 0x9a, 0xc0, 0x8c, 0xbd, 0xa6, 0xa7, 0x3c, 0xbe,
  0x94, 0x24, 0x41, 0x3d, 0xda, 0x10, 0x34, 0x3d, 0x75, 0x6e, 0xd5, 0x3d,
  0x22, 0x97, 0x87, 0x3e, 0xfd, 0x8f, 0xa0, 0xbe, 0x57, 0xc3, 0xea, 0x3d,
  0x19, 0x77, 0x29, 0x3e, 0x5e, 0xe0, 0x49, 0xbd, 0x92, 0x4b, 0xb0, 0xbe,
  0xb9, 0x16, 0x7b, 0x3c, 0xf1, 0x92, 0x4e, 0x3e, 0x54, 0x90, 0xbb, 0xbe,
  0xef, 0x31, 0x14, 0x3e, 0xb5, 0xe6, 0x66, 0x3e, 0xa8, 0x6a, 0xee, 0xbc,
  0x1c, 0x93, 0x92, 0xbd, 0x65, 0x24, 0xb8, 0xbe, 0x57, 0x62, 0x11, 0xbe,
  0x0a, 0xa1, 0x90, 0xbe, 0xdb, 0xce, 0x4a, 0xbe, 0x91, 0x77, 0x4f, 0x3e,
  0xb9, 0x0e, 0x8e, 0xbe, 0x41, 0xe5, 0x61, 0xbe, 0xc9, 0x96, 0x01, 0xbe,
  0x1f, 0xec, 0x33, 0xbe, 0xba, 0x7b, 0xef, 0x3e, 0x7f, 0x36, 0xc0, 0xbe,
  0xdf, 0xc5, 0x9a, 0xbd, 0x69, 0x48, 0x7d, 0xbc, 0x86, 0x8a, 0x2c, 0xbd,
  0x40, 0xc6, 0xe7, 0xbc, 0x34, 0x58, 0xe2, 0x3d, 0x7d, 0x84, 0x95, 0x3e,
  0xd1, 0x9f, 0x42, 0x3e, 0xc0, 0x1c, 0x6e, 0xbd, 0x5a, 0xf9, 0xdc, 0xbd,
  0xb9, 0x72, 0x4b, 0xbe, 0x50, 0xcc, 0x4e, 0xbe, 0xbd, 0x05, 0x34, 0x3e,
  0xd4, 0xbf, 0x2f, 0xbe, 0xdb, 0x6e, 0x91, 0x3e, 0xa9, 0x37, 0xdf, 0xbe,
  0x93, 0xaf, 0x29, 0xbe, 0x19, 0x24, 0x64, 0x3e, 0x17, 0xfa, 0x80, 0xbe,
  0xfb, 0x08, 0x4d, 0xbe, 0x36, 0xe0, 0xb7, 0x3e, 0x32, 0xba, 0x5a, 0xba,
  0xe3, 0x92, 0x00, 0xbf, 0xa5, 0xff, 0x5e, 0x3e, 0x95, 0x2e, 0x9c, 0x3e,
  0xfb, 0x04, 0x78, 0xbe, 0xfc, 0x14, 0xa9, 0x3d, 0x8c, 0x1f, 0x00, 0x3f,
  0x55, 0x51, 0xab, 0x3e, 0xf3, 0x6f, 0x02, 0x3e, 0xf2, 0xad, 0xaf, 0x3c,
  0xa8, 0xd8, 0xa8, 0xbe, 0xb2, 0x75, 0x98, 0x3e, 0xf2, 0x7f, 0x31, 0xbe,
  0xca, 0xd0, 0xed, 0x3e, 0xc4, 0xec, 0xfb, 0x3e, 0xa6, 0xe8, 0x98, 0xbe,
  0x73, 0xa0, 0x99, 0x3e, 0x21, 0x22, 0xaf, 0x3c, 0xbb, 0x4e, 0xcd, 0xbc,
  0x10, 0xa4, 0x29, 0xbe, 0x60, 0xae, 0x2e, 0xbe, 0x9d, 0xe2, 0xeb, 0xbe,
  0x66, 0xa9, 0xf5, 0x3e, 0x48, 0x97, 0x10, 0xbd, 0x11, 0xf2, 0xf6, 0x3e,
  0x3d, 0xca, 0x08, 0x3e, 0x08, 0x2d, 0x31, 0xbe, 0x59, 0x3f, 0x07, 0x3f,
  0x18, 0xba, 0x91, 0xbe, 0x45, 0xce, 0xe3, 0x3d, 0xb3, 0x3b, 0x98, 0x3e,
  0x54, 0xc4, 0x9b, 0x3e, 0x39, 0xb3, 0xd5, 0x3d, 0x54, 0x3a, 0x62, 0xbe,
  0x0d, 0x35, 0x3c, 0x3e, 0x9f, 0x7b, 0xae, 0xbd, 0x23, 0x79, 0x1b, 0xbe,
  0xa8, 0x0a, 0xbc, 0x3e, 0xe9, 0x18, 0x87, 0x3e, 0xce, 0x68, 0xdc, 0xbe,
  0xc8, 0xd8, 0xed, 0x3d, 0x9d, 0x95, 0xdb, 0x3e, 0xa1, 0xca, 0x0b, 0x3f,
  0xd8, 0x65, 0xc3, 0xbe, 0xcf, 0xf0, 0x85, 0x3e, 0x87, 0x6c, 0x81, 0x3e,
  0x56, 0x48, 0x8e, 0xbe, 0xf1, 0x74, 0xa5, 0xbe, 0x87, 0xfe, 0x3a, 0x3e,
  0xbf, 0xc1, 0x23, 0xbe, 0x3d, 0x43, 0x97, 0xbe, 0xd0, 0x5f, 0x82, 0xbe,
  0xf3, 0x68, 0x41, 0x3e, 0x6a, 0x17, 0x48, 0xbe, 0x0f, 0x01, 0x9e, 0x3d,
  0x63, 0xb2, 0x00, 0x3f, 0x97, 0xbd, 0x46, 0x3e, 0x34, 0x8d, 0x90, 0x3e,
  0x22, 0xec, 0x0d, 0x3e, 0x7a, 0x69, 0xc3, 0x3d, 0x77, 0x76, 0xe3, 0x3e,
  0x05, 0x7b, 0x1b, 0xbe, 0x32, 0xfb, 0xff, 0xff, 0x04, 0x00, 0x00, 0x00,
  0x3c, 0x00, 0x00, 0x00, 0xf2, 0x57, 0x00, 0xba, 0x5f, 0x5a, 0x56, 0xba,
  0xb7, 0xea, 0xa8, 0x38, 0xeb, 0x97, 0x79, 0xbe, 0xc8, 0xd5, 0xd9, 0x3e,
  0xbf, 0xab, 0x79, 0xbd, 0x36, 0x53, 0x54, 0xbe, 0x12, 0x47, 0x3a, 0xb9,
  0xfa, 0x50, 0x24, 0xbe, 0x7d, 0x04, 0x5f, 0xbe, 0xed, 0x5b, 0x07, 0x3f,
  0x9a, 0x3e, 0x42, 0x3e, 0xda, 0xbf, 0x49, 0xbe, 0xbe, 0x15, 0x52, 0x3e,
  0xfe, 0x62, 0xd5, 0x3d, 0x7a, 0xfb, 0xff, 0xff, 0x04, 0x00, 0x00, 0x00,
  0xf0, 0x00, 0x00, 0x00, 0xb3, 0xc1, 0x8e, 0x3e, 0xfd, 0x97, 0xa8, 0xbd,
  0x28, 0x85, 0x5d, 0x3e, 0x5f, 0x20, 0x63, 0x3e, 0x50, 0xd9, 0x8d, 0x3e,
  0xdb, 0xab, 0xac, 0x3e, 0x97, 0x88, 0x2e, 0xbe, 0x61, 0xdd, 0x54, 0x3d,
  0x01, 0x28, 0xf0, 0xbe, 0x20, 0x56, 0xc2, 0x3d, 0xd6, 0x7a, 0x18, 0xbe,
  0x42, 0x3e, 0xc1, 0x3e, 0x81, 0x3b, 0x1b, 0x3e, 0xbd, 0x2b, 0xb4, 0x3d,
  0xf4, 0x3f, 0x12, 0x3d, 0xf6, 0x84, 0x17, 0x3e, 0x68, 0x14, 0x38, 0xbe,
  0xaf, 0x59, 0x76, 0xbe, 0xdd, 0x9d, 0x5c, 0xbe, 0xf0, 0xec, 0x9e, 0x3e,
  0xde, 0xad, 0xa0, 0x3e, 0xd4, 0xa5, 0x4c, 0xbe, 0x6f, 0x8c, 0xda, 0xbd,
  0xb2, 0xc6, 0xd8, 0xbd, 0x98, 0xd5, 0x88, 0x3e, 0x5b, 0xf2, 0x77, 0xbe,
  0xcc, 0x7a, 0x9b, 0xbe, 0x75, 0x36, 0x85, 0x3d, 0x98, 0xba, 0xa8, 0x3c,
  0x0a, 0xf8, 0x49, 0x3e, 0x22, 0x2e, 0x14, 0xbe, 0x84, 0x54, 0x0a, 0x3e,
  0xda, 0xb0, 0xb9, 0x3d, 0x55, 0x7e, 0xf3, 0xbd, 0xc2, 0xaa, 0xe2, 0xbd,
  0xa0, 0xe1, 0xc0, 0x3d, 0x8b, 0x6e, 0x32, 0x3d, 0x28, 0xca, 0x5a, 0xbe,
  0xcf, 0x4f, 0xdf, 0xbd, 0x3b, 0x08, 0xde, 0xbd, 0xb7, 0x04, 0x9f, 0x3d,
  0xfc, 0xe4, 0x9f, 0x3e, 0x16, 0xca, 0x0d, 0x3e, 0x90, 0xfc, 0x66, 0x3e,
  0xdd, 0x06, 0x8e, 0x3d, 0x3b, 0x16, 0x4c, 0xbe, 0xe1, 0xd5, 0x10, 0x3e,
  0x69, 0x58, 0x89, 0xbe, 0xbd, 0x46, 0xa5, 0xbe, 0xdf, 0x1f, 0xd5, 0x3d,
  0xc1, 0x62, 0x5a, 0xbc, 0xd4, 0x76, 0x14, 0x3e, 0xc6, 0x2d, 0xd0, 0xbe,
  0xf0, 0x90, 0xaf, 0x3e, 0x80, 0x69, 0xbf, 0x3e, 0xc8, 0x09, 0x80, 0xbe,
  0xee, 0x90, 0x8b, 0xbd, 0xde, 0x54, 0x1e, 0xbd, 0x0a, 0x6c, 0x89, 0xbe,
  0x16, 0x10, 0xe9, 0xbe, 0x76, 0xfc, 0xff, 0xff, 0x04, 0x00, 0x00, 0x00,
  0x20, 0x03, 0x00, 0x00, 0x7a, 0xf0, 0xae, 0x3d, 0x42, 0x38, 0xc4, 0x3e,
  0xae, 0x6f, 0x77, 0x3e, 0x27, 0x06, 0x93, 0x3d, 0x27, 0xeb, 0x03, 0xbe,
  0x1a, 0x2a, 0x38, 0x3e, 0xf6, 0x4f, 0x32, 0x3e, 0xaa, 0xfb, 0x8c, 0x3d,
  0xd8, 0xe4, 0x2b, 0x3e, 0x1e, 0xcb, 0x08, 0x3e, 0x4c, 0xb5, 0xbd, 0x3c,
  0x69, 0xf9, 0xe5, 0xbe, 0x10, 0xa5, 0xa0, 0xbe, 0x1c, 0x81, 0x11, 0xbe,
  0x14, 0x64, 0x67, 0x3b, 0xd2, 0x4d, 0x06, 0xbe, 0x06, 0xc2, 0x09, 0xbe,
  0x76, 0xeb, 0x95, 0xbd, 0x45, 0xae, 0x6b, 0x3c, 0x90, 0x26, 0x27, 0x3d,
  0x44, 0x33, 0x61, 0xbe, 0xdc, 0x62, 0xc5, 0x3e, 0x28, 0x25, 0x1c, 0xbe,
  0x04, 0xba, 0x81, 0xbe, 0x0d, 0x58, 0xb8, 0x3e, 0xb2, 0x72, 0x7b, 0xbd,
  0xb8, 0x9a, 0xfe, 0xbd, 0x5b, 0xf9, 0x6c, 0xbe, 0xf9, 0x29, 0x4f, 0x3e,
  0xdc, 0x28, 0x43, 0xbe, 0xe4, 0x0f, 0x35, 0x3e, 0x79, 0xe2, 0x32, 0xbe,
  0xf2, 0x29, 0xa6, 0x3d, 0xba, 0x3a, 0x59, 0x3e, 0x15, 0x6f, 0x02, 0xbe,
  0xf1, 0xb9, 0x2c, 0x3d, 0x05, 0x2f, 0x7d, 0x3e, 0x72, 0x5d, 0xcd, 0x3e,
  0x64, 0x1f, 0xd4, 0xbe, 0x7f, 0x03, 0xc4, 0x3d, 0x68, 0x21, 0x96, 0x3e,
  0x4c, 0x8f, 0x1b, 0xbf, 0xb1, 0x77, 0x22, 0x3e, 0xf1, 0x73, 0xcb, 0xbd,
  0x39, 0x42, 0x61, 0xbe, 0x5f, 0x7b, 0xef, 0xbe, 0xff, 0x81, 0xa2, 0x3e,
  0xe0, 0xd2, 0xf4, 0x3e, 0x4b, 0xf1, 0xd4, 0x3e, 0x56, 0x22, 0x88, 0xbd,
  0x50, 0x56, 0xb0, 0x3e, 0x4a, 0xf3, 0x43, 0x3f, 0x84, 0x4a, 0xf8, 0x3c,
  0xf3, 0x7e, 0x65, 0x3d, 0x55, 0x6c, 0xd9, 0x3e, 0xe1, 0x40, 0xca, 0x3e,
  0x48, 0x70, 0x19, 0xbe, 0x6c, 0x89, 0x1d, 0xbf, 0xcd, 0xe9, 0xd3, 0x3d,
  0xee, 0xa2, 0xd5, 0xbe, 0x94, 0x46, 0xe8, 0x3d, 0x3e, 0x83, 0x2d, 0xbe,
  0x82, 0x5a, 0xc1, 0x3d, 0x3d, 0x0d, 0x0d, 0xbe, 0x1a, 0xc2, 0xb4, 0xbd,
  0x8d, 0xbc, 0xe7, 0x3d, 0x8f, 0xc9, 0x73, 0x3e, 0x3e, 0x41, 0x8d, 0x3e,
  0x1f, 0x35, 0x08, 0xbe, 0x07, 0x1c, 0xad, 0x3e, 0xf5, 0xb0, 0x6b, 0x3d,
  0xce, 0x6d, 0x2b, 0x3e, 0x30, 0x21, 0x00, 0xbe, 0xc8, 0x2b, 0x99, 0x3e,
  0x8c, 0xfa, 0x7a, 0xbd, 0x09, 0x39, 0x68, 0xbd, 0x01, 0xf5, 0xa3, 0xbe,
  0xaa, 0x2d, 0x27, 0xbe, 0x83, 0xd6, 0xbd, 0x3e, 0x49, 0x09, 0x9a, 0xbd,
  0x9e, 0x86, 0x32, 0xbc, 0xb4, 0xf9, 0x56, 0xbc, 0xb0, 0x21, 0x3c, 0x3e,
  0xb0, 0x40, 0x09, 0xbe, 0x59, 0xcd, 0x2e, 0x3d, 0x6b, 0x40, 0xa9, 0x3e,
  0x6c, 0x90, 0x97, 0x3e, 0x61, 0xf9, 0xc9, 0xbd, 0x4e, 0x95, 0xaf, 0xbc,
  0x34, 0x0f, 0xbf, 0xbe, 0x97, 0x8d, 0x8e, 0xbe, 0xb1, 0xa5, 0x1b, 0xbe,
  0x36, 0xe6, 0x8a, 0xbe, 0x0e, 0x42, 0xd8, 0x3c, 0xb3, 0xd8, 0x87, 0xbc,
  0x88, 0x1b, 0xa8, 0xbe, 0xbe, 0xc6, 0xf2, 0x3d, 0xe9, 0x22, 0xf7, 0x3d,
  0x03, 0x36, 0xec, 0xbd, 0xd7, 0x5f, 0x26, 0xbd, 0xf8, 0x0c, 0x28, 0xbe,
  0x7c, 0xc7, 0x05, 0xbd, 0xda, 0x56, 0x2e, 0x3d, 0xf5, 0xa5, 0xd8, 0x3d,
  0xfb, 0x26, 0xfb, 0x3d, 0x7e, 0x94, 0x8d, 0x3d, 0x35, 0xd4, 0xc3, 0x3d,
  0xfa, 0xcd, 0xc8, 0xbd, 0x7e, 0xee, 0x61, 0xbb, 0x80, 0x59, 0x8f, 0x3e,
  0x8d, 0x31, 0x5b, 0x3e, 0x9d, 0x17, 0x56, 0xbe, 0xda, 0x11, 0xfe, 0xbc,
  0x70, 0xe7, 0x38, 0xbc, 0xaa, 0xe7, 0xc3, 0xbd, 0x62, 0xf4, 0xae, 0xbd,
  0x19, 0x33, 0x16, 0xbe, 0x78, 0xbc, 0xc8, 0x3d, 0x1e, 0x82, 0xa6, 0x3e,
  0x6e, 0x33, 0x28, 0xbe, 0x65, 0xb8, 0xbe, 0xbe, 0xe8, 0x1d, 0xf1, 0x3e,
  0x31, 0xdc, 0x1e, 0x3e, 0x46, 0xc0, 0xd8, 0x3d, 0x20, 0xef, 0x23, 0x3d,
  0x40, 0xaf, 0x5d, 0x3e, 0xee, 0x84, 0x64, 0x3d, 0xd5, 0x64, 0xa2, 0x3b,
  0x3c, 0x67, 0x84, 0xbe, 0x1e, 0x2a, 0x51, 0xbe, 0x46, 0x61, 0x51, 0x3e,
  0xea, 0x42, 0xe5, 0xbc, 0x51, 0xef, 0xe3, 0xbd, 0xb0, 0xbe, 0x05, 0xbe,
  0x48, 0xc5, 0x14, 0xbc, 0x5f, 0x94, 0x2d, 0xbe, 0x7e, 0xa2, 0x11, 0x3d,
  0x90, 0xe3, 0x53, 0xbc, 0x24, 0xe8, 0xcf, 0xbe, 0xec, 0x0f, 0xf7, 0xbd,
  0xe7, 0x73, 0x83, 0x3d, 0xa7, 0x4d, 0xe2, 0xbe, 0x07, 0x84, 0xd8, 0xbe,
  0x26, 0xba, 0x63, 0x3e, 0xef, 0xd7, 0xc8, 0xbd, 0x7b, 0x05, 0xa7, 0xbc,
  0xd9, 0x5d, 0xed, 0x3d, 0x8d, 0x66, 0x48, 0x3e, 0x23, 0x41, 0x6b, 0x3e,
  0xf5, 0xfb, 0xd1, 0x3e, 0x36, 0x5c, 0x1c, 0x3d, 0x13, 0x37, 0xe0, 0xbc,
  0x29, 0x36, 0xca, 0x3e, 0x84, 0x7a, 0x1c, 0x3a, 0x93, 0x04, 0x7f, 0x3e,
  0xd8, 0x34, 0x92, 0x3c, 0xf2, 0x92, 0x38, 0xbe, 0x85, 0x4a, 0x73, 0xbd,
  0xbd, 0xff, 0xe9, 0x3e, 0x8f, 0x9a, 0x32, 0xbe, 0x13, 0x6c, 0xb5, 0x3e,
  0x6c, 0xee, 0x39, 0x3f, 0x47, 0x3a, 0xad, 0xbd, 0x88, 0x83, 0x63, 0xbe,
  0x73, 0xc6, 0xd1, 0xbd, 0xb1, 0xeb, 0xcf, 0x3d, 0x61, 0xce, 0x9e, 0xbc,
  0x62, 0xe7, 0xa9, 0xbe, 0xd2, 0xb0, 0xbb, 0x3d, 0x0f, 0xaf, 0xa2, 0x3e,
  0x9e, 0xfc, 0x31, 0xbe, 0x6a, 0x4f, 0x32, 0xbe, 0xc5, 0x53, 0x99, 0x3d,
  0x69, 0x01, 0xa8, 0x3e, 0xc6, 0x24, 0xf1, 0xbd, 0x7a, 0x5d, 0x8a, 0xbd,
  0x33, 0x8e, 0x65, 0x3e, 0x8a, 0x8f, 0xf1, 0x3d, 0x28, 0x98, 0x13, 0xbf,
  0xbe, 0xc3, 0x0e, 0xbe, 0x99, 0xb1, 0x80, 0xbd, 0x6c, 0xd0, 0xe8, 0x3e,
  0x1a, 0x5a, 0x3f, 0x3e, 0x1d, 0xda, 0x2d, 0xbc, 0xdb, 0xf8, 0x91, 0x3e,
  0x50, 0xeb, 0x5f, 0x3d, 0xd2, 0xc2, 0x64, 0x3e, 0x1b, 0x5d, 0xaf, 0xbe,
  0x79, 0x21, 0x9a, 0x3e, 0xf2, 0x73, 0x89, 0x3d, 0x82, 0x12, 0x83, 0xbe,
  0x59, 0x7f, 0x5d, 0xbe, 0x6a, 0x2b, 0xea, 0x3d, 0xdc, 0x0e, 0x58, 0xbd,
  0x9e, 0xb2, 0x14, 0x3d, 0xc1, 0x75, 0x2e, 0xbe, 0x26, 0x61, 0x07, 0x3d,
  0x28, 0x67, 0x05, 0x3e, 0x75, 0x2b, 0x4a, 0xbf, 0x35, 0xc3, 0xc4, 0x3e,
  0xa2, 0xff, 0xff, 0xff, 0x04, 0x00, 0x00, 0x00, 0x0c, 0x00, 0x00, 0x00,
  0xff, 0xff, 0xff, 0xff, 0x02, 0x00, 0x00, 0x00, 0x0a, 0x00, 0x00, 0x00,
  0xba, 0xff, 0xff, 0xff, 0x04, 0x00, 0x00, 0x00, 0x04, 0x00, 0x00, 0x00,
  0x0d, 0xd2, 0x35, 0x3e, 0xca, 0xff, 0xff, 0xff, 0x04, 0x00, 0x00, 0x00,
  0x28, 0x00, 0x00, 0x00, 0x10, 0xde, 0xa4, 0xbd, 0x0b, 0x51, 0x1a, 0xbe,
  0x91, 0x90, 0xff, 0xbc, 0x5c, 0xd3, 0x5a, 0x3d, 0x2f, 0x2e, 0xc3, 0xbe,
  0xe4, 0x41, 0x45, 0xbd, 0x43, 0x40, 0x71, 0x3d, 0xbe, 0xb9, 0x0b, 0x3f,
  0x30, 0x9d, 0x82, 0xbd, 0x42, 0x76, 0x8a, 0x3d, 0x00, 0x00, 0x06, 0x00,
  0x08, 0x00, 0x04, 0x00, 0x06, 0x00, 0x00, 0x00, 0x04, 0x00, 0x00, 0x00,
  0x28, 0x00, 0x00, 0x00, 0xc8, 0xcf, 0x70, 0xbc, 0x2a, 0x16, 0x38, 0xbe,
  0xec, 0x95, 0xd4, 0xbc, 0x24, 0xc6, 0x33, 0xbe, 0x5e, 0x6c, 0xb3, 0x3d,
  0xb7, 0xb7, 0x8f, 0x3d, 0xfa, 0x1c, 0x7c, 0xbd, 0x29, 0xe4, 0x47, 0xbd,
  0x16, 0xd1, 0x05, 0xbd, 0x83, 0x12, 0x1c, 0x3c, 0x48, 0xf6, 0xff, 0xff,
  0x4c, 0xf6, 0xff, 0xff, 0x0f, 0x00, 0x00, 0x00, 0x4d, 0x4c, 0x49, 0x52,
  0x20, 0x43, 0x6f, 0x6e, 0x76, 0x65, 0x72, 0x74, 0x65, 0x64, 0x2e, 0x00,
  0x01, 0x00, 0x00, 0x00, 0x14, 0x00, 0x00, 0x00, 0x00, 0x00, 0x0e, 0x00,
  0x18, 0x00, 0x14, 0x00, 0x10, 0x00, 0x0c, 0x00, 0x08, 0x00, 0x04, 0x00,
  0x0e, 0x00, 0x00, 0x00, 0x14, 0x00, 0x00, 0x00, 0x1c, 0x00, 0x00, 0x00,
  0xfc, 0x01, 0x00, 0x00, 0x00, 0x02, 0x00, 0x00, 0x04, 0x02, 0x00, 0x00,
  0x04, 0x00, 0x00, 0x00, 0x6d, 0x61, 0x69, 0x6e, 0x00, 0x00, 0x00, 0x00,
  0x08, 0x00, 0x00, 0x00, 0xb4, 0x01, 0x00, 0x00, 0x54, 0x01, 0x00, 0x00,
  0x1c, 0x01, 0x00, 0x00, 0xe0, 0x00, 0x00, 0x00, 0x9c, 0x00, 0x00, 0x00,
  0x74, 0x00, 0x00, 0x00, 0x3c, 0x00, 0x00, 0x00, 0x04, 0x00, 0x00, 0x00,
  0xd6, 0xfe, 0xff, 0xff, 0x14, 0x00, 0x00, 0x00, 0x00, 0x00, 0x00, 0x08,
  0x10, 0x00, 0x00, 0x00, 0x14, 0x00, 0x00, 0x00, 0x03, 0x00, 0x00, 0x00,
  0xdc, 0xf6, 0xff, 0xff, 0x01, 0x00, 0x00, 0x00, 0x12, 0x00, 0x00, 0x00,
  0x03, 0x00, 0x00, 0x00, 0x11, 0x00, 0x00, 0x00, 0x07, 0x00, 0x00, 0x00,
  0x03, 0x00, 0x00, 0x00, 0x0a, 0xff, 0xff, 0xff, 0x14, 0x00, 0x00, 0x00,
  0x00, 0x00, 0x00, 0x08, 0x10, 0x00, 0x00, 0x00, 0x14, 0x00, 0x00, 0x00,
  0x03, 0x00, 0x00, 0x00, 0x10, 0xf7, 0xff, 0xff, 0x01, 0x00, 0x00, 0x00,
  0x11, 0x00, 0x00, 0x00, 0x03, 0x00, 0x00, 0x00, 0x10, 0x00, 0x00, 0x00,
  0x08, 0x00, 0x00, 0x00, 0xff, 0xff, 0xff, 0xff, 0x6e, 0xff, 0xff, 0xff,
  0x0c, 0x00, 0x00, 0x00, 0x10, 0x00, 0x00, 0x00, 0x02, 0x00, 0x00, 0x00,
  0x01, 0x00, 0x00, 0x00, 0x10, 0x00, 0x00, 0x00, 0x02, 0x00, 0x00, 0x00,
  0x0f, 0x00, 0x00, 0x00, 0x09, 0x00, 0x00, 0x00, 0x62, 0xff, 0xff, 0xff,
  0x14, 0x00, 0x00, 0x00, 0x00, 0x00, 0x00, 0x01, 0x1c, 0x00, 0x00, 0x00,
  0x20, 0x00, 0x00, 0x00, 0x01, 0x00, 0x00, 0x00, 0x52, 0xff, 0xff, 0xff,
  0x01, 0x00, 0x00, 0x00, 0x01, 0x00, 0x00, 0x00, 0x00, 0x00, 0x00, 0x01,
  0x01, 0x00, 0x00, 0x00, 0x0f, 0x00, 0x00, 0x00, 0x03, 0x00, 0x00, 0x00,
  0x0e, 0x00, 0x00, 0x00, 0x05, 0x00, 0x00, 0x00, 0x01, 0x00, 0x00, 0x00,
  0x46, 0xff, 0xff, 0xff, 0x10, 0x00, 0x00, 0x00, 0x00, 0x00, 0x00, 0x34,
  0x0c, 0x00, 0x00, 0x00, 0x10, 0x00, 0x00, 0x00, 0xa4, 0xf7, 0xff, 0xff,
  0x01, 0x00, 0x00, 0x00, 0x0e, 0x00, 0x00, 0x00, 0x02, 0x00, 0x00, 0x00,
  0x0d, 0x00, 0x00, 0x00, 0x0a, 0x00, 0x00, 0x00, 0x00, 0x00, 0x0a, 0x00,
  0x10, 0x00, 0x0c, 0x00, 0x08, 0x00, 0x04, 0x00, 0x0a, 0x00, 0x00, 0x00,
  0x0c, 0x00, 0x00, 0x00, 0x10, 0x00, 0x00, 0x00, 0x02, 0x00, 0x00, 0x00,
  0x01, 0x00, 0x00, 0x00, 0x0d, 0x00, 0x00, 0x00, 0x02, 0x00, 0x00, 0x00,
  0x0c, 0x00, 0x00, 0x00, 0x04, 0x00, 0x00, 0x00, 0x00, 0x00, 0x0e, 0x00,
  0x1a, 0x00, 0x14, 0x00, 0x10, 0x00, 0x0c, 0x00, 0x0b, 0x00, 0x04, 0x00,
  0x0e, 0x00, 0x00, 0x00, 0x20, 0x00, 0x00, 0x00, 0x00, 0x00, 0x00, 0x01,
  0x28, 0x00, 0x00, 0x00, 0x2c, 0x00, 0x00, 0x00, 0x01, 0x00, 0x00, 0x00,
  0x00, 0x00, 0x0a, 0x00, 0x10, 0x00, 0x0f, 0x00, 0x08, 0x00, 0x04, 0x00,
  0x0a, 0x00, 0x00, 0x00, 0x01, 0x00, 0x00, 0x00, 0x01, 0x00, 0x00, 0x00,
  0x00, 0x00, 0x00, 0x01, 0x01, 0x00, 0x00, 0x00, 0x0c, 0x00, 0x00, 0x00,
  0x03, 0x00, 0x00, 0x00, 0x0b, 0x00, 0x00, 0x00, 0x06, 0x00, 0x00, 0x00,
  0x02, 0x00, 0x00, 0x00, 0x00, 0x00, 0x0e, 0x00, 0x14, 0x00, 0x00, 0x00,
  0x10, 0x00, 0x0c, 0x00, 0x0b, 0x00, 0x04, 0x00, 0x0e, 0x00, 0x00, 0x00,
  0x10, 0x00, 0x00, 0x00, 0x00, 0x00, 0x00, 0x34, 0x0c, 0x00, 0x00, 0x00,
  0x10, 0x00, 0x00, 0x00, 0x6c, 0xf8, 0xff, 0xff, 0x01, 0x00, 0x00, 0x00,
  0x0b, 0x00, 0x00, 0x00, 0x02, 0x00, 0x00, 0x00, 0x00, 0x00, 0x00, 0x00,
  0x0a, 0x00, 0x00, 0x00, 0x01, 0x00, 0x00, 0x00, 0x12, 0x00, 0x00, 0x00,
  0x01, 0x00, 0x00, 0x00, 0x00, 0x00, 0x00, 0x00, 0x13, 0x00, 0x00, 0x00,
  0x3c, 0x07, 0x00, 0x00, 0xe8, 0x06, 0x00, 0x00, 0x94, 0x06, 0x00, 0x00,
  0x58, 0x06, 0x00, 0x00, 0x18, 0x06, 0x00, 0x00, 0xb8, 0x05, 0x00, 0x00,
  0x70, 0x05, 0x00, 0x00, 0x30, 0x05, 0x00, 0x00, 0xf0, 0x04, 0x00, 0x00,
  0xb0, 0x04, 0x00, 0x00, 0x74, 0x04, 0x00, 0x00, 0xf0, 0x03, 0x00, 0x00,
  0x20, 0x03, 0x00, 0x00, 0x80, 0x02, 0x00, 0x00, 0xfc, 0x01, 0x00, 0x00,
  0x2c, 0x01, 0x00, 0x00, 0xc4, 0x00, 0x00, 0x00, 0x60, 0x00, 0x00, 0x00,
  0x04, 0x00, 0x00, 0x00, 0x26, 0xf9, 0xff, 0xff, 0x00, 0x00, 0x00, 0x01,
  0x14, 0x00, 0x00, 0x00, 0x1c, 0x00, 0x00, 0x00, 0x1c, 0x00, 0x00, 0x00,
  0x13, 0x00, 0x00, 0x00, 0x34, 0x00, 0x00, 0x00, 0x02, 0x00, 0x00, 0x00,
  0xff, 0xff, 0xff, 0xff, 0x01, 0x00, 0x00, 0x00, 0x0c, 0xf9, 0xff, 0xff,
  0x1b, 0x00, 0x00, 0x00, 0x53, 0x74, 0x61, 0x74, 0x65, 0x66, 0x75, 0x6c,
  0x50, 0x61, 0x72, 0x74, 0x69, 0x74, 0x69, 0x6f, 0x6e, 0x65, 0x64, 0x43,
  0x61, 0x6c, 0x6c, 0x5f, 0x31, 0x3a, 0x30, 0x00, 0x02, 0x00, 0x00, 0x00,
  0x01, 0x00, 0x00, 0x00, 0x01, 0x00, 0x00, 0x00, 0x7e, 0xf9, 0xff, 0xff,
  0x00, 0x00, 0x00, 0x01, 0x14, 0x00, 0x00, 0x00, 0x1c, 0x00, 0x00, 0x00,
  0x1c, 0x00, 0x00, 0x00, 0x12, 0x00, 0x00, 0x00, 0x3c, 0x00, 0x00, 0x00,
  0x02, 0x00, 0x00, 0x00, 0xff, 0xff, 0xff, 0xff, 0x0f, 0x00, 0x00, 0x00,
  0x64, 0xf9, 0xff, 0xff, 0x22, 0x00, 0x00, 0x00, 0x73, 0x65, 0x71, 0x75,
  0x65, 0x6e, 0x74, 0x69, 0x61, 0x6c, 0x5f, 0x34, 0x36, 0x5f, 0x31, 0x2f,
  0x64, 0x65, 0x6e, 0x73, 0x65, 0x5f, 0x31, 0x34, 0x32, 0x5f, 0x31, 0x2f,
  0x4d, 0x61, 0x74, 0x4d, 0x75, 0x6c, 0x00, 0x00, 0x02, 0x00, 0x00, 0x00,
  0x01, 0x00, 0x00, 0x00, 0x0f, 0x00, 0x00, 0x00, 0xde, 0xf9, 0xff, 0xff,
  0x00, 0x00, 0x00, 0x01, 0x14, 0x00, 0x00, 0x00, 0x1c, 0x00, 0x00, 0x00,
  0x1c, 0x00, 0x00, 0x00, 0x11, 0x00, 0x00, 0x00, 0x40, 0x00, 0x00, 0x00,
  0x02, 0x00, 0x00, 0x00, 0xff, 0xff, 0xff, 0xff, 0x0a, 0x00, 0x00, 0x00,
  0xc4, 0xf9, 0xff, 0xff, 0x24, 0x00, 0x00, 0x00, 0x73, 0x65, 0x71, 0x75,
  0x65, 0x6e, 0x74, 0x69, 0x61, 0x6c, 0x5f, 0x34, 0x36, 0x5f, 0x31, 0x2f,
  0x66, 0x6c, 0x61, 0x74, 0x74, 0x65, 0x6e, 0x5f, 0x33, 0x39, 0x5f, 0x31,
  0x2f, 0x52, 0x65, 0x73, 0x68, 0x61, 0x70, 0x65, 0x00, 0x00, 0x00, 0x00,
  0x02, 0x00, 0x00, 0x00, 0x01, 0x00, 0x00, 0x00, 0x0a, 0x00, 0x00, 0x00,
  0x42, 0xfa, 0xff, 0xff, 0x00, 0x00, 0x00, 0x01, 0x14, 0x00, 0x00, 0x00,
  0x24, 0x00, 0x00, 0x00, 0x24, 0x00, 0x00, 0x00, 0x10, 0x00, 0x00, 0x00,
  0xa0, 0x00, 0x00, 0x00, 0x04, 0x00, 0x00, 0x00, 0xff, 0xff, 0xff, 0xff,
  0x01, 0x00, 0x00, 0x00, 0x01, 0x00, 0x00, 0x00, 0x0a, 0x00, 0x00, 0x00,
  0x30, 0xfa, 0xff, 0xff, 0x7c, 0x00, 0x00, 0x00, 0x73, 0x65, 0x71, 0x75,
  0x65, 0x6e, 0x74, 0x69, 0x61, 0x6c, 0x5f, 0x34, 0x36, 0x5f, 0x31, 0x2f,
  0x63, 0x6f, 0x6e, 0x76, 0x31, 0x64, 0x5f, 0x33, 0x35, 0x5f, 0x31, 0x2f,
  0x42, 0x69, 0x61, 0x73, 0x41, 0x64, 0x64, 0x3b, 0x73, 0x65, 0x71, 0x75,
  0x65, 0x6e, 0x74, 0x69, 0x61, 0x6c, 0x5f, 0x34, 0x36, 0x5f, 0x31, 0x2f,
  0x63, 0x6f, 0x6e, 0x76, 0x31, 0x64, 0x5f, 0x33, 0x35, 0x5f, 0x31, 0x2f,
  0x63, 0x6f, 0x6e, 0x76, 0x6f, 0x6c, 0x75, 0x74, 0x69, 0x6f, 0x6e, 0x2f,
  0x53, 0x71, 0x75, 0x65, 0x65, 0x7a, 0x65, 0x3b, 0x3b, 0x73, 0x65, 0x71,
  0x75, 0x65, 0x6e, 0x74, 0x69, 0x61, 0x6c, 0x5f, 0x34, 0x36, 0x5f, 0x31,
  0x2f, 0x63, 0x6f, 0x6e, 0x76, 0x31, 0x64, 0x5f, 0x33, 0x35, 0x5f, 0x31,
  0x2f, 0x63, 0x6f, 0x6e, 0x76, 0x6f, 0x6c, 0x75, 0x74, 0x69, 0x6f, 0x6e,
  0x00, 0x00, 0x00, 0x00, 0x04, 0x00, 0x00, 0x00, 0x01, 0x00, 0x00, 0x00,
  0x01, 0x00, 0x00, 0x00, 0x01, 0x00, 0x00, 0x00, 0x0a, 0x00, 0x00, 0x00,
  0x0e, 0xfb, 0xff, 0xff, 0x00, 0x00, 0x00, 0x01, 0x14, 0x00, 0x00, 0x00,
  0x24, 0x00, 0x00, 0x00, 0x24, 0x00, 0x00, 0x00, 0x0f, 0x00, 0x00, 0x00,
  0x54, 0x00, 0x00, 0x00, 0x04, 0x00, 0x00, 0x00, 0xff, 0xff, 0xff, 0xff,
  0x01, 0x00, 0x00, 0x00, 0x02, 0x00, 0x00, 0x00, 0x0a, 0x00, 0x00, 0x00,
  0xfc, 0xfa, 0xff, 0xff, 0x32, 0x00, 0x00, 0x00, 0x73, 0x65, 0x71, 0x75,
  0x65, 0x6e, 0x74, 0x69, 0x61, 0x6c, 0x5f, 0x34, 0x36, 0x5f, 0x31, 0x2f,
  0x63, 0x6f, 0x6e, 0x76, 0x31, 0x64, 0x5f, 0x33, 0x35, 0x5f, 0x31, 0x2f,
  0x63, 0x6f, 0x6e, 0x76, 0x6f, 0x6c, 0x75, 0x74, 0x69, 0x6f, 0x6e, 0x2f,
  0x45, 0x78, 0x70, 0x61, 0x6e, 0x64, 0x44, 0x69, 0x6d, 0x73, 0x00, 0x00,
  0x04, 0x00, 0x00, 0x00, 0x01, 0x00, 0x00, 0x00, 0x01, 0x00, 0x00, 0x00,
  0x02, 0x00, 0x00, 0x00, 0x0a, 0x00, 0x00, 0x00, 0x8e, 0xfb, 0xff, 0xff,
  0x00, 0x00, 0x00, 0x01, 0x14, 0x00, 0x00, 0x00, 0x20, 0x00, 0x00, 0x00,
  0x20, 0x00, 0x00, 0x00, 0x0e, 0x00, 0x00, 0x00, 0x74, 0x00, 0x00, 0x00,
  0x03, 0x00, 0x00, 0x00, 0xff, 0xff, 0xff, 0xff, 0x02, 0x00, 0x00, 0x00,
  0x0a, 0x00, 0x00, 0x00, 0x78, 0xfb, 0xff, 0xff, 0x54, 0x00, 0x00, 0x00,
  0x73, 0x65, 0x71, 0x75, 0x65, 0x6e, 0x74, 0x69, 0x61, 0x6c, 0x5f, 0x34,
  0x36, 0x5f, 0x31, 0x2f, 0x63, 0x6f, 0x6e, 0x76, 0x31, 0x64, 0x5f, 0x33,
  0x34, 0x5f, 0x31, 0x2f, 0x42, 0x69, 0x61, 0x73, 0x41, 0x64, 0x64, 0x3b,
  0x73, 0x65, 0x71, 0x75, 0x65, 0x6e, 0x74, 0x69, 0x61, 0x6c, 0x5f, 0x34,
  0x36, 0x5f, 0x31, 0x2f, 0x63, 0x6f, 0x6e, 0x76, 0x31, 0x64, 0x5f, 0x33,
  0x34, 0x5f, 0x31, 0x2f, 0x63, 0x6f, 0x6e, 0x76, 0x6f, 0x6c, 0x75, 0x74,
  0x69, 0x6f, 0x6e, 0x2f, 0x53, 0x71, 0x75, 0x65, 0x65, 0x7a, 0x65, 0x3b,
  0x00, 0x00, 0x00, 0x00, 0x03, 0x00, 0x00, 0x00, 0x01, 0x00, 0x00, 0x00,
  0x02, 0x00, 0x00, 0x00, 0x0a, 0x00, 0x00, 0x00, 0x2a, 0xfc, 0xff, 0xff,
  0x00, 0x00, 0x00, 0x01, 0x14, 0x00, 0x00, 0x00, 0x24, 0x00, 0x00, 0x00,
  0x24, 0x00, 0x00, 0x00, 0x0d, 0x00, 0x00, 0x00, 0xa0, 0x00, 0x00, 0x00,
  0x04, 0x00, 0x00, 0x00, 0xff, 0xff, 0xff, 0xff, 0x01, 0x00, 0x00, 0x00,
  0x02, 0x00, 0x00, 0x00, 0x0a, 0x00, 0x00, 0x00, 0x18, 0xfc, 0xff, 0xff,
  0x7c, 0x00, 0x00, 0x00, 0x73, 0x65, 0x71, 0x75, 0x65, 0x6e, 0x74, 0x69,
  0x61, 0x6c, 0x5f, 0x34, 0x36, 0x5f, 0x31, 0x2f, 0x63, 0x6f, 0x6e, 0x76,
  0x31, 0x64, 0x5f, 0x33, 0x34, 0x5f, 0x31, 0x2f, 0x42, 0x69, 0x61, 0x73,
  0x41, 0x64, 0x64, 0x3b, 0x73, 0x65, 0x71, 0x75, 0x65, 0x6e, 0x74, 0x69,
  0x61, 0x6c, 0x5f, 0x34, 0x36, 0x5f, 0x31, 0x2f, 0x63, 0x6f, 0x6e, 0x76,
  0x31, 0x64, 0x5f, 0x33, 0x34, 0x5f, 0x31, 0x2f, 0x63, 0x6f, 0x6e, 0x76,
  0x6f, 0x6c, 0x75, 0x74, 0x69, 0x6f, 0x6e, 0x2f, 0x53, 0x71, 0x75, 0x65,
  0x65, 0x7a, 0x65, 0x3b, 0x3b, 0x73, 0x65, 0x71, 0x75, 0x65, 0x6e, 0x74,
  0x69, 0x61, 0x6c, 0x5f, 0x34, 0x36, 0x5f, 0x31, 0x2f, 0x63, 0x6f, 0x6e,
  0x76, 0x31, 0x64, 0x5f, 0x33, 0x34, 0x5f, 0x31, 0x2f, 0x63, 0x6f, 0x6e,
  0x76, 0x6f, 0x6c, 0x75, 0x74, 0x69, 0x6f, 0x6e, 0x00, 0x00, 0x00, 0x00,
  0x04, 0x00, 0x00, 0x00, 0x01, 0x00, 0x00, 0x00, 0x01, 0x00, 0x00, 0x00,
  0x02, 0x00, 0x00, 0x00, 0x0a, 0x00, 0x00, 0x00, 0xf6, 0xfc, 0xff, 0xff,
  0x00, 0x00, 0x00, 0x01, 0x14, 0x00, 0x00, 0x00, 0x24, 0x00, 0x00, 0x00,
  0x24, 0x00, 0x00, 0x00, 0x0c, 0x00, 0x00, 0x00, 0x54, 0x00, 0x00, 0x00,
  0x04, 0x00, 0x00, 0x00, 0xff, 0xff, 0xff, 0xff, 0x01, 0x00, 0x00, 0x00,
  0x04, 0x00, 0x00, 0x00, 0x02, 0x00, 0x00, 0x00, 0xe4, 0xfc, 0xff, 0xff,
  0x32, 0x00, 0x00, 0x00, 0x73, 0x65, 0x71, 0x75, 0x65, 0x6e, 0x74, 0x69,
  0x61, 0x6c, 0x5f, 0x34, 0x36, 0x5f, 0x31, 0x2f, 0x63, 0x6f, 0x6e, 0x76,
  0x31, 0x64, 0x5f, 0x33, 0x34, 0x5f, 0x31, 0x2f, 0x63, 0x6f, 0x6e, 0x76,
  0x6f, 0x6c, 0x75, 0x74, 0x69, 0x6f, 0x6e, 0x2f, 0x45, 0x78, 0x70, 0x61,
  0x6e, 0x64, 0x44, 0x69, 0x6d, 0x73, 0x00, 0x00, 0x04, 0x00, 0x00, 0x00,
  0x01, 0x00, 0x00, 0x00, 0x01, 0x00, 0x00, 0x00, 0x04, 0x00, 0x00, 0x00,
  0x02, 0x00, 0x00, 0x00, 0x8a, 0xfe, 0xff, 0xff, 0x00, 0x00, 0x00, 0x01,
  0x14, 0x00, 0x00, 0x00, 0x14, 0x00, 0x00, 0x00, 0x0b, 0x00, 0x00, 0x00,
  0x00, 0x00, 0x00, 0x02, 0x1c, 0x00, 0x00, 0x00, 0x50, 0xfd, 0xff, 0xff,
  0x0f, 0x00, 0x00, 0x00, 0x61, 0x72, 0x69, 0x74, 0x68, 0x2e, 0x63, 0x6f,
  0x6e, 0x73, 0x74, 0x61, 0x6e, 0x74, 0x39, 0x00, 0x00, 0x00, 0x00, 0x00,
  0xc2, 0xfe, 0xff, 0xff, 0x00, 0x00, 0x00, 0x01, 0x14, 0x00, 0x00, 0x00,
  0x14, 0x00, 0x00, 0x00, 0x0a, 0x00, 0x00, 0x00, 0x00, 0x00, 0x00, 0x02,
  0x1c, 0x00, 0x00, 0x00, 0x88, 0xfd, 0xff, 0xff, 0x0f, 0x00, 0x00, 0x00,
  0x61, 0x72, 0x69, 0x74, 0x68, 0x2e, 0x63, 0x6f, 0x6e, 0x73, 0x74, 0x61,
  0x6e, 0x74, 0x38, 0x00, 0x01, 0x00, 0x00, 0x00, 0x02, 0x00, 0x00, 0x00,
  0x3a, 0xfe, 0xff, 0xff, 0x00, 0x00, 0x00, 0x01, 0x10, 0x00, 0x00, 0x00,
  0x10, 0x00, 0x00, 0x00, 0x09, 0x00, 0x00, 0x00, 0x1c, 0x00, 0x00, 0x00,
  0xc0, 0xfd, 0xff, 0xff, 0x0f, 0x00, 0x00, 0x00, 0x61, 0x72, 0x69, 0x74,
  0x68, 0x2e, 0x63, 0x6f, 0x6e, 0x73, 0x74, 0x61, 0x6e, 0x74, 0x37, 0x00,
  0x02, 0x00, 0x00, 0x00, 0x0f, 0x00, 0x00, 0x00, 0x0a, 0x00, 0x00, 0x00,
  0x76, 0xfe, 0xff, 0xff, 0x00, 0x00, 0x00, 0x01, 0x10, 0x00, 0x00, 0x00,
  0x10, 0x00, 0x00, 0x00, 0x08, 0x00, 0x00, 0x00, 0x1c, 0x00, 0x00, 0x00,
  0xfc, 0xfd, 0xff, 0xff, 0x0f, 0x00, 0x00, 0x00, 0x61, 0x72, 0x69, 0x74,
  0x68, 0x2e, 0x63, 0x6f, 0x6e, 0x73, 0x74, 0x61, 0x6e, 0x74, 0x36, 0x00,
  0x02, 0x00, 0x00, 0x00, 0x01, 0x00, 0x00, 0x00, 0x0f, 0x00, 0x00, 0x00,
  0xb2, 0xfe, 0xff, 0xff, 0x00, 0x00, 0x00, 0x01, 0x10, 0x00, 0x00, 0x00,
  0x10, 0x00, 0x00, 0x00, 0x07, 0x00, 0x00, 0x00, 0x1c, 0x00, 0x00, 0x00,
  0x38, 0xfe, 0xff, 0xff, 0x0f, 0x00, 0x00, 0x00, 0x61, 0x72, 0x69, 0x74,
  0x68, 0x2e, 0x63, 0x6f, 0x6e, 0x73, 0x74, 0x61, 0x6e, 0x74, 0x35, 0x00,
  0x04, 0x00, 0x00, 0x00, 0x0a, 0x00, 0x00, 0x00, 0x01, 0x00, 0x00, 0x00,
  0x03, 0x00, 0x00, 0x00, 0x02, 0x00, 0x00, 0x00, 0xf6, 0xfe, 0xff, 0xff,
  0x00, 0x00, 0x00, 0x01, 0x10, 0x00, 0x00, 0x00, 0x10, 0x00, 0x00, 0x00,
  0x06, 0x00, 0x00, 0x00, 0x1c, 0x00, 0x00, 0x00, 0x7c, 0xfe, 0xff, 0xff,
  0x0f, 0x00, 0x00, 0x00, 0x61, 0x72, 0x69, 0x74, 0x68, 0x2e, 0x63, 0x6f,
  0x6e, 0x73, 0x74, 0x61, 0x6e, 0x74, 0x34, 0x00, 0x04, 0x00, 0x00, 0x00,
  0x0a, 0x00, 0x00, 0x00, 0x01, 0x00, 0x00, 0x00, 0x02, 0x00, 0x00, 0x00,
  0x0a, 0x00, 0x00, 0x00, 0x00, 0x00, 0x16, 0x00, 0x1c, 0x00, 0x18, 0x00,
  0x17, 0x00, 0x10, 0x00, 0x0c, 0x00, 0x08, 0x00, 0x00, 0x00, 0x00, 0x00,
  0x00, 0x00, 0x07, 0x00, 0x16, 0x00, 0x00, 0x00, 0x00, 0x00, 0x00, 0x01,
  0x14, 0x00, 0x00, 0x00, 0x14, 0x00, 0x00, 0x00, 0x05, 0x00, 0x00, 0x00,
  0x00, 0x00, 0x00, 0x02, 0x1c, 0x00, 0x00, 0x00, 0xdc, 0xfe, 0xff, 0xff,
  0x0f, 0x00, 0x00, 0x00, 0x61, 0x72, 0x69, 0x74, 0x68, 0x2e, 0x63, 0x6f,
  0x6e, 0x73, 0x74, 0x61, 0x6e, 0x74, 0x33, 0x00, 0x01, 0x00, 0x00, 0x00,
  0x03, 0x00, 0x00, 0x00, 0x8e, 0xff, 0xff, 0xff, 0x00, 0x00, 0x00, 0x01,
  0x10, 0x00, 0x00, 0x00, 0x10, 0x00, 0x00, 0x00, 0x04, 0x00, 0x00, 0x00,
  0x1c, 0x00, 0x00, 0x00, 0x14, 0xff, 0xff, 0xff, 0x0f, 0x00, 0x00, 0x00,
  0x61, 0x72, 0x69, 0x74, 0x68, 0x2e, 0x63, 0x6f, 0x6e, 0x73, 0x74, 0x61,
  0x6e, 0x74, 0x32, 0x00, 0x01, 0x00, 0x00, 0x00, 0x01, 0x00, 0x00, 0x00,
  0xc6, 0xff, 0xff, 0xff, 0x00, 0x00, 0x00, 0x01, 0x10, 0x00, 0x00, 0x00,
  0x10, 0x00, 0x00, 0x00, 0x03, 0x00, 0x00, 0x00, 0x1c, 0x00, 0x00, 0x00,
  0x4c, 0xff, 0xff, 0xff, 0x0f, 0x00, 0x00, 0x00, 0x61, 0x72, 0x69, 0x74,
  0x68, 0x2e, 0x63, 0x6f, 0x6e, 0x73, 0x74, 0x61, 0x6e, 0x74, 0x31, 0x00,
  0x01, 0x00, 0x00, 0x00, 0x0a, 0x00, 0x00, 0x00, 0x00, 0x00, 0x16, 0x00,
  0x18, 0x00, 0x14, 0x00, 0x00, 0x00, 0x10, 0x00, 0x0c, 0x00, 0x08, 0x00,
  0x00, 0x00, 0x00, 0x00, 0x00, 0x00, 0x07, 0x00, 0x16, 0x00, 0x00, 0x00,
  0x00, 0x00, 0x00, 0x01, 0x10, 0x00, 0x00, 0x00, 0x10, 0x00, 0x00, 0x00,
  0x02, 0x00, 0x00, 0x00, 0x1c, 0x00, 0x00, 0x00, 0x9c, 0xff, 0xff, 0xff,
  0x0e, 0x00, 0x00, 0x00, 0x61, 0x72, 0x69, 0x74, 0x68, 0x2e, 0x63, 0x6f,
  0x6e, 0x73, 0x74, 0x61, 0x6e, 0x74, 0x00, 0x00, 0x01, 0x00, 0x00, 0x00,
  0x0a, 0x00, 0x00, 0x00, 0x00, 0x00, 0x16, 0x00, 0x1c, 0x00, 0x18, 0x00,
  0x00, 0x00, 0x14, 0x00, 0x10, 0x00, 0x0c, 0x00, 0x00, 0x00, 0x00, 0x00,
  0x08, 0x00, 0x07, 0x00, 0x16, 0x00, 0x00, 0x00, 0x00, 0x00, 0x00, 0x01,
  0x14, 0x00, 0x00, 0x00, 0x24, 0x00, 0x00, 0x00, 0x24, 0x00, 0x00, 0x00,
  0x01, 0x00, 0x00, 0x00, 0x38, 0x00, 0x00, 0x00, 0x03, 0x00, 0x00, 0x00,
  0xff, 0xff, 0xff, 0xff, 0x04, 0x00, 0x00, 0x00, 0x02, 0x00, 0x00, 0x00,
  0x04, 0x00, 0x04, 0x00, 0x04, 0x00, 0x00, 0x00, 0x17, 0x00, 0x00, 0x00,
  0x73, 0x65, 0x72, 0x76, 0x69, 0x6e, 0x67, 0x5f, 0x64, 0x65, 0x66, 0x61,
  0x75, 0x6c, 0x74, 0x5f, 0x69, 0x6e, 0x70, 0x75, 0x74, 0x3a, 0x30, 0x00,
  0x03, 0x00, 0x00, 0x00, 0x01, 0x00, 0x00, 0x00, 0x04, 0x00, 0x00, 0x00,
  0x02, 0x00, 0x00, 0x00, 0x04, 0x00, 0x00, 0x00, 0x40, 0x00, 0x00, 0x00,
  0x24, 0x00, 0x00, 0x00, 0x14, 0x00, 0x00, 0x00, 0x04, 0x00, 0x00, 0x00,
  0xdc, 0xff, 0xff, 0xff, 0x09, 0x00, 0x00, 0x00, 0x00, 0x00, 0x00, 0x09,
  0xe8, 0xff, 0xff, 0xff, 0x16, 0x00, 0x00, 0x00, 0x00, 0x00, 0x00, 0x16,
  0xf4, 0xff, 0xff, 0xff, 0x03, 0x00, 0x00, 0x00, 0x00, 0x00, 0x00, 0x03,
  0x0c, 0x00, 0x0c, 0x00, 0x0b, 0x00, 0x00, 0x00, 0x00, 0x00, 0x04, 0x00,
  0x0c, 0x00, 0x00, 0x00, 0x46, 0x00, 0x00, 0x00, 0x00, 0x00, 0x00, 0x46
};
const int modell_cnn_hum_len = 5076;
