#include "model_temp.h"

// Keep model aligned to 8 bytes to guarantee aligned 64-bit accesses.
alignas(8) const unsigned char modell_cnn_temp[] = {
  0x1c, 0x00, 0x00, 0x00, 0x54, 0x46, 0x4c, 0x33, 0x14, 0x00, 0x20, 0x00,
  0x1c, 0x00, 0x18, 0x00, 0x14, 0x00, 0x10, 0x00, 0x0c, 0x00, 0x00, 0x00,
  0x08, 0x00, 0x04, 0x00, 0x14, 0x00, 0x00, 0x00, 0x1c, 0x00, 0x00, 0x00,
  0x84, 0x00, 0x00, 0x00, 0xdc, 0x00, 0x00, 0x00, 0x74, 0x09, 0x00, 0x00,
  0x84, 0x09, 0x00, 0x00, 0x50, 0x13, 0x00, 0x00, 0x03, 0x00, 0x00, 0x00,
  0x01, 0x00, 0x00, 0x00, 0x04, 0x00, 0x00, 0x00, 0x36, 0xf5, 0xff, 0xff,
  0x0c, 0x00, 0x00, 0x00, 0x1c, 0x00, 0x00, 0x00, 0x3c, 0x00, 0x00, 0x00,
  0x0f, 0x00, 0x00, 0x00, 0x73, 0x65, 0x72, 0x76, 0x69, 0x6e, 0x67, 0x5f,
  0x64, 0x65, 0x66, 0x61, 0x75, 0x6c, 0x74, 0x00, 0x01, 0x00, 0x00, 0x00,
  0x04, 0x00, 0x00, 0x00, 0x98, 0xff, 0xff, 0xff, 0x12, 0x00, 0x00, 0x00,
  0x04, 0x00, 0x00, 0x00, 0x08, 0x00, 0x00, 0x00, 0x6f, 0x75, 0x74, 0x70,
  0x75, 0x74, 0x5f, 0x30, 0x00, 0x00, 0x00, 0x00, 0x01, 0x00, 0x00, 0x00,
  0x04, 0x00, 0x00, 0x00, 0x36, 0xf7, 0xff, 0xff, 0x04, 0x00, 0x00, 0x00,
  0x05, 0x00, 0x00, 0x00, 0x69, 0x6e, 0x70, 0x75, 0x74, 0x00, 0x00, 0x00,
  0x02, 0x00, 0x00, 0x00, 0x34, 0x00, 0x00, 0x00, 0x04, 0x00, 0x00, 0x00,
  0xdc, 0xff, 0xff, 0xff, 0x15, 0x00, 0x00, 0x00, 0x04, 0x00, 0x00, 0x00,
  0x13, 0x00, 0x00, 0x00, 0x43, 0x4f, 0x4e, 0x56, 0x45, 0x52, 0x53, 0x49,
  0x4f, 0x4e, 0x5f, 0x4d, 0x45, 0x54, 0x41, 0x44, 0x41, 0x54, 0x41, 0x00,
  0x08, 0x00, 0x0c, 0x00, 0x08, 0x00, 0x04, 0x00, 0x08, 0x00, 0x00, 0x00,
  0x14, 0x00, 0x00, 0x00, 0x04, 0x00, 0x00, 0x00, 0x13, 0x00, 0x00, 0x00,
  0x6d, 0x69, 0x6e, 0x5f, 0x72, 0x75, 0x6e, 0x74, 0x69, 0x6d, 0x65, 0x5f,
  0x76, 0x65, 0x72, 0x73, 0x69, 0x6f, 0x6e, 0x00, 0x16, 0x00, 0x00, 0x00,
  0x94, 0x08, 0x00, 0x00, 0x8c, 0x08, 0x00, 0x00, 0x54, 0x08, 0x00, 0x00,
  0x14, 0x08, 0x00, 0x00, 0x00, 0x08, 0x00, 0x00, 0xe4, 0x07, 0x00, 0x00,
  0xb4, 0x04, 0x00, 0x00, 0xb4, 0x03, 0x00, 0x00, 0x68, 0x03, 0x00, 0x00,
  0x00, 0x01, 0x00, 0x00, 0xe8, 0x00, 0x00, 0x00, 0xd4, 0x00, 0x00, 0x00,
  0xcc, 0x00, 0x00, 0x00, 0xc4, 0x00, 0x00, 0x00, 0xbc, 0x00, 0x00, 0x00,
  0xb4, 0x00, 0x00, 0x00, 0xac, 0x00, 0x00, 0x00, 0xa4, 0x00, 0x00, 0x00,
  0x9c, 0x00, 0x00, 0x00, 0x94, 0x00, 0x00, 0x00, 0x74, 0x00, 0x00, 0x00,
  0x04, 0x00, 0x00, 0x00, 0x02, 0xf8, 0xff, 0xff, 0x04, 0x00, 0x00, 0x00,
  0x60, 0x00, 0x00, 0x00, 0x0c, 0x00, 0x00, 0x00, 0x08, 0x00, 0x0e, 0x00,
  0x08, 0x00, 0x04, 0x00, 0x08, 0x00, 0x00, 0x00, 0x10, 0x00, 0x00, 0x00,
  0x28, 0x00, 0x00, 0x00, 0x00, 0x00, 0x06, 0x00, 0x08, 0x00, 0x04, 0x00,
  0x06, 0x00, 0x00, 0x00, 0x04, 0x00, 0x00, 0x00, 0x01, 0x00, 0x00, 0x00,
  0xea, 0x03, 0x00, 0x00, 0x0c, 0x00, 0x18, 0x00, 0x14, 0x00, 0x10, 0x00,
  0x0c, 0x00, 0x04, 0x00, 0x0c, 0x00, 0x00, 0x00, 0x31, 0x9d, 0xbe, 0x2d,
  0x26, 0x16, 0xc7, 0x4f, 0x02, 0x00, 0x00, 0x00, 0x02, 0x00, 0x00, 0x00,
  0x04, 0x00, 0x00, 0x00, 0x06, 0x00, 0x00, 0x00, 0x32, 0x2e, 0x31, 0x39,
  0x2e, 0x30, 0x00, 0x00, 0x6e, 0xf8, 0xff, 0xff, 0x04, 0x00, 0x00, 0x00,
  0x10, 0x00, 0x00, 0x00, 0x31, 0x2e, 0x31, 0x30, 0x2e, 0x30, 0x00, 0x00,
  0x00, 0x00, 0x00, 0x00, 0x00, 0x00, 0x00, 0x00, 0x98, 0xee, 0xff, 0xff,
  0x9c, 0xee, 0xff, 0xff, 0xa0, 0xee, 0xff, 0xff, 0xa4, 0xee, 0xff, 0xff,
  0xa8, 0xee, 0xff, 0xff, 0xac, 0xee, 0xff, 0xff, 0xb0, 0xee, 0xff, 0xff,
  0xb4, 0xee, 0xff, 0xff, 0xaa, 0xf8, 0xff, 0xff, 0x04, 0x00, 0x00, 0x00,
  0x04, 0x00, 0x00, 0x00, 0xfd, 0xff, 0xff, 0xff, 0xba, 0xf8, 0xff, 0xff,
  0x04, 0x00, 0x00, 0x00, 0x08, 0x00, 0x00, 0x00, 0xff, 0xff, 0xff, 0xff,
  0x0a, 0x00, 0x00, 0x00, 0xce, 0xf8, 0xff, 0xff, 0x04, 0x00, 0x00, 0x00,
  0x58, 0x02, 0x00, 0x00, 0x7d, 0x1b, 0x30, 0xbb, 0x51, 0x65, 0x1c, 0xbc,
  0x41, 0x88, 0x9c, 0x3c, 0xb0, 0xa2, 0xa7, 0x3d, 0x67, 0x34, 0x0e, 0x3c,
  0xac, 0x04, 0x5d, 0x3b, 0x3e, 0x00, 0x00, 0x3e, 0x86, 0x60, 0x66, 0xbd,
  0x91, 0x79, 0xda, 0x3d, 0x7a, 0x38, 0x0d, 0x3d, 0xb2, 0x91, 0xc6, 0x3c,
  0x79, 0xa7, 0x5b, 0xbe, 0x72, 0xcf, 0x3b, 0xbe, 0x35, 0x36, 0xa6, 0x3e,
  0xa8, 0x60, 0x2d, 0xbe, 0x74, 0xcd, 0x8a, 0xbe, 0xd8, 0x68, 0xc2, 0x3e,
  0x38, 0x69, 0xc8, 0x3d, 0xb7, 0xae, 0x9d, 0x3e, 0x1b, 0x4b, 0xb9, 0x3e,
  0xfa, 0xc7, 0x19, 0xbe, 0xd7, 0xf0, 0x18, 0xbd, 0x58, 0xfb, 0xbb, 0x3e,
  0xc2, 0xac, 0xa0, 0xbe, 0x02, 0xe0, 0xc2, 0x3e, 0xbb, 0xe9, 0xfd, 0xbe,
  0x24, 0xd3, 0xb6, 0x3d, 0x01, 0x93, 0xad, 0xbd, 0x13, 0x17, 0xe0, 0x3e,
  0x8b, 0xd3, 0xf8, 0xbe, 0x41, 0xee, 0xb0, 0x3d, 0x0e, 0xcd, 0xb3, 0xbd,
  0x1b, 0xef, 0x68, 0x3e, 0x78, 0xae, 0xd7, 0x3e, 0x6b, 0x5c, 0x87, 0x3b,
  0xf1, 0x6c, 0x65, 0x3e, 0x51, 0x9f, 0x27, 0xbe, 0x15, 0x02, 0x58, 0x3d,
  0xb5, 0x1d, 0xd3, 0x3e, 0x8c, 0x78, 0x30, 0x3e, 0x0f, 0x4a, 0x73, 0xbd,
  0x88, 0xcd, 0x46, 0x3e, 0x40, 0x27, 0x4f, 0x3e, 0xf8, 0xf7, 0xce, 0x3e,
  0x1f, 0x1e, 0xee, 0xbb, 0x8b, 0xfb, 0xa6, 0x3b, 0x55, 0xb0, 0x5d, 0x3e,
  0xe3, 0xdc, 0xcf, 0xbc, 0x53, 0x25, 0x4c, 0x3d, 0xd2, 0xe7, 0x28, 0x3e,
  0xbf, 0xae, 0x04, 0x3d, 0x48, 0x65, 0x52, 0x3c, 0x4a, 0x62, 0xb1, 0x3d,
  0xf7, 0x7e, 0x1a, 0x3e, 0xbd, 0x96, 0xe4, 0xb9, 0xc2, 0x42, 0xe3, 0x3a,
  0x49, 0x78, 0xc7, 0x3d, 0x64, 0xad, 0xa0, 0xbd, 0x50, 0xf5, 0xb8, 0x3d,
  0x18, 0x4b, 0x79, 0x3d, 0xcd, 0xb0, 0xd9, 0xbe, 0x6e, 0xf9, 0xd5, 0x3e,
  0x76, 0xb1, 0x08, 0xbe, 0xb2, 0xb3, 0xbf, 0xbe, 0xbf, 0x19, 0xa7, 0x3d,
  0x7a, 0x86, 0x93, 0xbe, 0x4f, 0xc7, 0xcf, 0xbe, 0x9c, 0xcf, 0x97, 0x3e,
  0xd6, 0x4a, 0xa9, 0xbe, 0xa3, 0xf4, 0x76, 0xbe, 0x31, 0x87, 0x98, 0xbd,
  0xef, 0xdc, 0x1f, 0xbd, 0x8b, 0x50, 0xdf, 0xbd, 0x8c, 0xc6, 0x53, 0xbe,
  0x85, 0xa4, 0xdf, 0xbb, 0x54, 0xe6, 0x56, 0x39, 0xd0, 0xf1, 0xcb, 0xbd,
  0xc5, 0xc0, 0xa7, 0x3d, 0x99, 0xac, 0x9c, 0xbd, 0x8a, 0x1e, 0xa8, 0xbd,
  0x30, 0x7a, 0xbd, 0x3e, 0x2f, 0x6d, 0xf7, 0x3d, 0xd6, 0xa1, 0x52, 0x3d,
  0xc8, 0x33, 0xf1, 0x3d, 0x5d, 0x54, 0x7c, 0x3d, 0x56, 0xf9, 0x04, 0x3d,
  0x00, 0x14, 0x61, 0xbd, 0x23, 0x9f, 0xe1, 0x3e, 0x85, 0x7f, 0xc0, 0x3d,
  0xd9, 0x66, 0x84, 0xbe, 0x56, 0xa0, 0x8e, 0x3d, 0x97, 0xfa, 0x89, 0xbe,
  0x80, 0x1e, 0xe7, 0xbc, 0xe8, 0x6c, 0x91, 0x3e, 0x86, 0x24, 0x47, 0xbd,
  0xa8, 0x10, 0xdf, 0xbe, 0x08, 0xb6, 0x32, 0xbe, 0x4f, 0xf0, 0xdc, 0xbe,
  0x2a, 0x34, 0x9f, 0xbc, 0x88, 0x13, 0x50, 0xbe, 0x5b, 0x7f, 0x84, 0xbd,
  0x01, 0x93, 0x14, 0x3e, 0xa9, 0x03, 0xdc, 0x3d, 0x6c, 0x8b, 0xe7, 0x3e,
  0x4e, 0x3c, 0x05, 0xbe, 0x9d, 0x8f, 0x64, 0xbe, 0x65, 0xb0, 0x68, 0xbc,
  0x50, 0x94, 0x1d, 0xbe, 0xc1, 0x91, 0x63, 0xbe, 0xfd, 0xd6, 0xe9, 0xbe,
  0x97, 0x59, 0xc2, 0xbb, 0xb9, 0x49, 0x43, 0x3c, 0x50, 0x6b, 0x38, 0xbc,
  0xdf, 0xd8, 0x97, 0xbd, 0x1a, 0x07, 0xd9, 0xbc, 0xc0, 0xce, 0xec, 0xba,
  0x46, 0xda, 0xfd, 0xbd, 0x08, 0xbb, 0x72, 0x3d, 0x3a, 0x47, 0xd7, 0xbd,
  0x45, 0x2e, 0xf9, 0xbc, 0x0d, 0xf9, 0xd7, 0x3e, 0x15, 0x49, 0x1e, 0xbe,
  0x72, 0x5f, 0xea, 0x3c, 0x3d, 0xcd, 0x5e, 0xbe, 0xc3, 0x38, 0x8d, 0x3b,
  0x23, 0x81, 0x3e, 0xbd, 0x49, 0xf4, 0xf1, 0x3d, 0x54, 0xd7, 0xbe, 0xbe,
  0xe6, 0x3f, 0x47, 0x3e, 0xb3, 0x8f, 0x83, 0xbe, 0x05, 0xd2, 0x1f, 0x3d,
  0xac, 0x3c, 0x12, 0x3e, 0x00, 0x2e, 0x19, 0x3e, 0xa0, 0x41, 0x01, 0x3f,
  0x98, 0x1a, 0xc1, 0xbc, 0xe6, 0xae, 0x18, 0x3c, 0x76, 0xef, 0x71, 0x3e,
  0xea, 0x29, 0x92, 0xbd, 0x31, 0x32, 0x0f, 0x3e, 0xfa, 0x0f, 0x55, 0x3e,
  0xf5, 0x1b, 0x6b, 0x3a, 0x40, 0xdd, 0x36, 0xbd, 0x2a, 0x42, 0x43, 0xbd,
  0x5c, 0xf3, 0xef, 0xbd, 0x6e, 0x4a, 0x83, 0x3d, 0xa8, 0x23, 0x97, 0xbb,
  0x6e, 0xc2, 0xdb, 0xbd, 0xad, 0xd3, 0xe1, 0x3c, 0x75, 0xe2, 0xd4, 0xbd,
  0xb9, 0x2a, 0x4b, 0xbd, 0x32, 0xfb, 0xff, 0xff, 0x04, 0x00, 0x00, 0x00,
  0x3c, 0x00, 0x00, 0x00, 0xd6, 0xaf, 0xa8, 0x38, 0xbb, 0x4a, 0xc3, 0x3e,
  0x19, 0xc6, 0x85, 0x3e, 0xf8, 0xa1, 0x5f, 0xbe, 0x67, 0x3e, 0x21, 0x39,
  0x7c, 0x85, 0xd5, 0x38, 0x50, 0x3c, 0x4d, 0x3e, 0x99, 0x22, 0x18, 0xb9,
  0x6d, 0xe3, 0xd6, 0x3e, 0x68, 0x21, 0xfb, 0x3e, 0x83, 0xeb, 0xd2, 0x3e,
  0xdb, 0xab, 0xdc, 0xb8, 0x55, 0xc0, 0x8f, 0xbd, 0xf7, 0xea, 0x0a, 0x39,
  0xc0, 0x40, 0x79, 0x35, 0x7a, 0xfb, 0xff, 0xff, 0x04, 0x00, 0x00, 0x00,
  0xf0, 0x00, 0x00, 0x00, 0x1d, 0x9e, 0xea, 0xbc, 0x74, 0xc8, 0x5d, 0x3c,
  0x5f, 0x26, 0x86, 0xbd, 0xa4, 0xb3, 0xd7, 0x3d, 0xde, 0xda, 0xc2, 0x3d,
  0xd2, 0x7d, 0xf3, 0xbd, 0xb8, 0x32, 0x96, 0x3e, 0x15, 0xcb, 0x57, 0xbc,
  0x17, 0x48, 0xe6, 0x3d, 0x97, 0x5f, 0x4f, 0x3d, 0x72, 0x51, 0xce, 0xbe,
  0x01, 0x97, 0x0d, 0xbd, 0xa6, 0x7a, 0xd8, 0x3e, 0xd5, 0xb5, 0xc4, 0x3d,
  0x5e, 0x26, 0xc1, 0xbe, 0xbf, 0x52, 0x29, 0x3e, 0x1a, 0x3b, 0x32, 0xbd,
  0x0f, 0x7d, 0x85, 0xbe, 0x95, 0x50, 0x20, 0xbe, 0xc7, 0x80, 0x03, 0x3e,
  0x9e, 0x04, 0x1a, 0x3e, 0x6d, 0xb1, 0xb0, 0xbe, 0x8b, 0x1c, 0x0a, 0x3c,
  0xb4, 0x57, 0x5c, 0x3e, 0x0d, 0x37, 0x20, 0xbd, 0x48, 0x89, 0x53, 0xbd,
  0x0b, 0x40, 0x8e, 0xbe, 0x65, 0x38, 0xf0, 0x3d, 0x6a, 0x86, 0xa4, 0x3e,
  0xd2, 0x19, 0x8a, 0xbd, 0x7b, 0x6f, 0x52, 0xbe, 0xab, 0x1d, 0x24, 0xbe,
  0xc4, 0x8d, 0x59, 0xbd, 0xda, 0xa7, 0x1a, 0x3e, 0xc0, 0xb0, 0x83, 0x3e,
  0x18, 0x95, 0x05, 0x3c, 0xf8, 0x01, 0x7b, 0xbd, 0x95, 0xfc, 0x9a, 0x3e,
  0x31, 0xbb, 0x8e, 0xbe, 0x4a, 0x25, 0x0f, 0x3e, 0x88, 0xc2, 0x95, 0xbe,
  0x38, 0xfc, 0xc1, 0xbd, 0xa7, 0x13, 0xf8, 0x3d, 0xb6, 0x2d, 0xa4, 0xbe,
  0xda, 0xcd, 0xb5, 0xbe, 0xe2, 0x05, 0x95, 0xbe, 0x99, 0x7a, 0xb5, 0xbe,
  0xaf, 0x26, 0x00, 0x3e, 0xe0, 0xb9, 0xff, 0x3d, 0x36, 0x66, 0x63, 0xbd,
  0x8a, 0x2f, 0x02, 0x3e, 0x61, 0xcb, 0x3f, 0xbe, 0xc1, 0x0a, 0xb4, 0x3e,
  0xc7, 0x46, 0x1f, 0xbe, 0x7a, 0x7a, 0x51, 0xbe, 0x83, 0x9a, 0xb9, 0xbd,
  0x1b, 0x8e, 0xe2, 0x3d, 0x26, 0xcc, 0xf5, 0x3d, 0x00, 0xe8, 0xae, 0x3d,
  0x19, 0x5f, 0xe4, 0xbc, 0x76, 0xfc, 0xff, 0xff, 0x04, 0x00, 0x00, 0x00,
  0x20, 0x03, 0x00, 0x00, 0xda, 0xe8, 0x68, 0xbd, 0xf9, 0xf8, 0x0c, 0xbe,
  0x2e, 0x88, 0x51, 0x3e, 0x1a, 0xec, 0x34, 0x3e, 0x9f, 0x6a, 0x68, 0x3e,
  0x40, 0x3b, 0x0b, 0xbd, 0x7d, 0xdf, 0x08, 0xbf, 0x5c, 0x38, 0xdb, 0x3c,
  0xbd, 0xe7, 0xdd, 0xbe, 0x25, 0xd3, 0xaa, 0xbc, 0xe0, 0xbb, 0x0e, 0x3e,
  0x36, 0xdf, 0x54, 0x3e, 0x90, 0x01, 0x93, 0xbc, 0x06, 0x68, 0xfe, 0xbd,
  0xb3, 0x96, 0x53, 0xbe, 0xc8, 0xd6, 0x04, 0xbe, 0xac, 0x3f, 0x30, 0xbe,
  0xa5, 0x8d, 0x18, 0x3d, 0xd4, 0x42, 0x84, 0xbe, 0xbf, 0xb5, 0x49, 0x3d,
  0xbb, 0xfd, 0x69, 0xbd, 0x45, 0x0c, 0x4b, 0x3e, 0x58, 0x37, 0xe2, 0xbd,
  0x7b, 0x7e, 0xe1, 0xbd, 0x92, 0x53, 0x3b, 0x3e, 0x82, 0xf5, 0xc5, 0x3d,
  0x67, 0x51, 0xe2, 0xbb, 0xdf, 0xb8, 0xbd, 0xbd, 0xec, 0x9a, 0x32, 0xbe,
  0x72, 0xce, 0x33, 0xbd, 0x47, 0x36, 0x88, 0x3c, 0x0c, 0x02, 0x81, 0xbe,
  0xfa, 0xd2, 0x4f, 0x3c, 0x88, 0x67, 0xcb, 0x3d, 0x18, 0x81, 0x09, 0xbe,
  0x28, 0x2c, 0xe5, 0x3b, 0xf5, 0x90, 0x36, 0xbe, 0x07, 0x2e, 0xcf, 0x3d,
  0x0b, 0x96, 0x61, 0x3b, 0x9c, 0xe9, 0xb8, 0xbb, 0x2d, 0x7b, 0xb6, 0xbc,
  0x3d, 0xfe, 0xc0, 0xbd, 0xa0, 0x3b, 0x71, 0xbd, 0x17, 0x73, 0xa3, 0xbe,
  0x6a, 0x2a, 0xa7, 0xbe, 0xba, 0x02, 0x1b, 0x3d, 0x17, 0xec, 0x54, 0xbe,
  0xbb, 0x2e, 0x9a, 0xbd, 0x76, 0x03, 0xe3, 0x3d, 0xb0, 0x5e, 0x80, 0x3e,
  0x89, 0x69, 0xa9, 0x3d, 0xd8, 0x3d, 0x2d, 0x3e, 0xa6, 0x88, 0x58, 0x3e,
  0x1e, 0xef, 0x98, 0x3e, 0x08, 0x33, 0x72, 0x3e, 0x4c, 0xb7, 0xe0, 0xbd,
  0x20, 0x17, 0x49, 0xbc, 0x1b, 0x64, 0xc7, 0x3d, 0x8f, 0x48, 0xa7, 0xbe,
  0x5a, 0xfa, 0x24, 0xbe, 0x34, 0x8e, 0x58, 0xbe, 0x5a, 0x61, 0x97, 0x3e,
  0x4b, 0xae, 0x5c, 0xbe, 0x7d, 0x24, 0x51, 0x3e, 0xe5, 0x9a, 0x8f, 0xbc,
  0x56, 0xd4, 0xd1, 0x3d, 0xe9, 0xa6, 0xc3, 0x3d, 0xf0, 0x25, 0x2f, 0xbe,
  0xc9, 0x8b, 0x91, 0xbd, 0x57, 0xc9, 0x6b, 0xbe, 0xd1, 0x12, 0xa1, 0x3e,
  0x3b, 0x75, 0x9f, 0xbe, 0x2a, 0x59, 0x80, 0xbe, 0x0f, 0xef, 0x15, 0xbe,
  0x05, 0x94, 0x5a, 0x3c, 0x73, 0x37, 0xec, 0x3d, 0xa0, 0xca, 0x0d, 0xbf,
  0x7e, 0x52, 0x05, 0xbc, 0xe9, 0x10, 0x19, 0x3e, 0xe6, 0xfe, 0x9d, 0xbc,
  0x3d, 0x67, 0x30, 0xbe, 0x59, 0xee, 0x89, 0x3e, 0x35, 0xe1, 0x2d, 0xbe,
  0x17, 0xe5, 0x47, 0xbe, 0xc6, 0xca, 0x27, 0xbe, 0x50, 0x1c, 0xb2, 0x3d,
  0x60, 0xe3, 0x32, 0x3c, 0xa7, 0x36, 0x74, 0xbd, 0xd1, 0xea, 0xa3, 0xbe,
  0xfb, 0x97, 0xdd, 0xbd, 0x96, 0xb4, 0x21, 0x3e, 0x5b, 0xbf, 0x85, 0xbe,
  0x6f, 0xdb, 0xa6, 0x3d, 0x1b, 0xf4, 0x63, 0x3e, 0xc6, 0xa1, 0x16, 0x3e,
  0x96, 0x5d, 0xce, 0xbc, 0x96, 0x26, 0x60, 0x3d, 0x11, 0x19, 0x64, 0x3d,
  0xb1, 0x82, 0xc1, 0x3e, 0xda, 0xd1, 0x53, 0x3d, 0x8c, 0xb8, 0x4b, 0x3e,
  0x3f, 0xc1, 0xb9, 0x3d, 0x6b, 0x9b, 0xbc, 0xbe, 0x11, 0x9d, 0x49, 0xbe,
  0x38, 0xa2, 0xbd, 0x3c, 0x59, 0x24, 0x51, 0xbc, 0x7f, 0x72, 0xba, 0x3e,
  0x65, 0x59, 0xa9, 0x3e, 0x3b, 0x63, 0xa6, 0x3e, 0xea, 0x53, 0x0d, 0xbe,
  0x00, 0xc5, 0x73, 0xbe, 0x39, 0x5f, 0x48, 0x3e, 0xa7, 0x30, 0x58, 0x3e,
  0x51, 0xa9, 0xab, 0xbd, 0x51, 0x1a, 0x61, 0xbe, 0x8b, 0x44, 0x93, 0x3e,
  0x50, 0x04, 0xd8, 0x3e, 0x13, 0x94, 0xb7, 0x3e, 0xb2, 0xb8, 0xd4, 0x3d,
  0x96, 0x1b, 0x9e, 0x3e, 0x20, 0xff, 0x82, 0x3d, 0x4b, 0x8e, 0x09, 0x3c,
  0xf7, 0x89, 0x16, 0xbe, 0x33, 0x5a, 0xcd, 0xba, 0xd9, 0xc1, 0xf2, 0x3c,
  0xe7, 0xe1, 0x8b, 0xbd, 0xdd, 0xf9, 0xa1, 0x3e, 0x30, 0x6b, 0x39, 0x3e,
  0x3f, 0xf1, 0xc1, 0x3e, 0xd4, 0x2b, 0x84, 0xbd, 0xe7, 0x32, 0x5c, 0xbd,
  0xad, 0xbb, 0x3a, 0x3d, 0x41, 0x72, 0x71, 0x3e, 0xa4, 0x38, 0xbc, 0x3c,
  0xc2, 0x1e, 0x5c, 0xbd, 0x3a, 0xd7, 0x5e, 0x3c, 0x43, 0xac, 0x18, 0x3e,
  0x66, 0xaa, 0x61, 0xbe, 0x13, 0x28, 0xa6, 0x3d, 0xfe, 0xdf, 0x05, 0x3e,
  0x8b, 0x7b, 0x1e, 0x3e, 0xd9, 0xb5, 0xa5, 0x3e, 0x68, 0x28, 0xf1, 0x3d,
  0x17, 0x94, 0x5f, 0x3e, 0xf9, 0x73, 0x93, 0xbe, 0x51, 0xcb, 0xcd, 0xbb,
  0xfc, 0x02, 0x62, 0xbd, 0x1d, 0x1f, 0x80, 0x3e, 0xf3, 0x42, 0x3a, 0xbe,
  0xc4, 0x4a, 0x5e, 0x3d, 0x3d, 0x3e, 0x0f, 0xbe, 0x41, 0xdd, 0xc2, 0xbe,
  0xe8, 0x0f, 0x2a, 0xbe, 0x9e, 0x29, 0xcc, 0xbd, 0x58, 0xf5, 0xb3, 0x3e,
  0x4b, 0xac, 0xae, 0xbd, 0xb3, 0xfa, 0x01, 0x3e, 0xbd, 0x16, 0x83, 0xbe,
  0x8b, 0x59, 0x7e, 0x3e, 0x2f, 0x07, 0xb2, 0xbd, 0x45, 0x1c, 0x62, 0x3c,
  0xf5, 0x50, 0x47, 0x3c, 0xd0, 0x05, 0xa2, 0x3d, 0xab, 0xcf, 0x63, 0xbe,
  0x9e, 0x35, 0x8e, 0xbd, 0xe8, 0xb8, 0xd3, 0x3c, 0x4d, 0x2a, 0xa1, 0x3d,
  0x4b, 0x81, 0x10, 0x3e, 0xd4, 0x35, 0xd9, 0xbc, 0x24, 0x69, 0x51, 0xbd,
  0x25, 0x01, 0x1f, 0xbd, 0x67, 0xc8, 0x86, 0x3d, 0xec, 0x22, 0x0d, 0xbd,
  0x88, 0x33, 0x74, 0x3e, 0xa7, 0x4f, 0x77, 0x3d, 0x66, 0xf9, 0x39, 0x3c,
  0x53, 0x8f, 0xc6, 0x3d, 0x9e, 0x7f, 0x1c, 0xbe, 0x4c, 0xed, 0x44, 0x3e,
  0x82, 0x54, 0xb6, 0x3d, 0xb9, 0xc5, 0x91, 0xbd, 0x96, 0x18, 0xb3, 0xbe,
  0xd7, 0xf6, 0x85, 0xbd, 0x66, 0x14, 0x97, 0x3e, 0x78, 0xa1, 0xf9, 0x3e,
  0x36, 0x93, 0xdb, 0x3c, 0xfd, 0x9b, 0x11, 0x3f, 0x0b, 0x9a, 0x66, 0x3e,
  0xaa, 0xeb, 0x68, 0xbe, 0x00, 0x30, 0x42, 0xbe, 0xde, 0xab, 0x3d, 0x3e,
  0xbb, 0x52, 0x69, 0xbd, 0xd1, 0x93, 0x25, 0x3c, 0xd5, 0xfc, 0x02, 0x3e,
  0x08, 0x80, 0x5e, 0xbe, 0x1f, 0x04, 0x8f, 0xbe, 0x15, 0xf0, 0xf1, 0x3d,
  0xbd, 0xfa, 0x59, 0x3e, 0x83, 0xca, 0xbd, 0xbe, 0xc1, 0x38, 0x45, 0xbe,
  0xa2, 0xff, 0xff, 0xff, 0x04, 0x00, 0x00, 0x00, 0x0c, 0x00, 0x00, 0x00,
  0xff, 0xff, 0xff, 0xff, 0x02, 0x00, 0x00, 0x00, 0x0a, 0x00, 0x00, 0x00,
  0xba, 0xff, 0xff, 0xff, 0x04, 0x00, 0x00, 0x00, 0x04, 0x00, 0x00, 0x00,
  0xa2, 0x06, 0x1a, 0x3e, 0xca, 0xff, 0xff, 0xff, 0x04, 0x00, 0x00, 0x00,
  0x28, 0x00, 0x00, 0x00, 0x26, 0xa3, 0x0f, 0xbd, 0x81, 0x73, 0x5b, 0xbe,
  0xee, 0xd0, 0xa5, 0xbd, 0xbb, 0xdb, 0x0b, 0x3c, 0x62, 0x7c, 0x68, 0xbd,
  0x9c, 0x5f, 0xc2, 0x3d, 0xb2, 0x94, 0xa8, 0x3d, 0x57, 0x7c, 0xa8, 0x3d,
  0x03, 0xa4, 0xdc, 0xbc, 0x02, 0x03, 0x3e, 0x3e, 0x00, 0x00, 0x06, 0x00,
  0x08, 0x00, 0x04, 0x00, 0x06, 0x00, 0x00, 0x00, 0x04, 0x00, 0x00, 0x00,
  0x28, 0x00, 0x00, 0x00, 0x49, 0x52, 0xab, 0x3e, 0xb9, 0xbf, 0x6f, 0xbe,
  0xb1, 0x9e, 0x3f, 0x3e, 0xe5, 0x93, 0xa7, 0x3b, 0xa5, 0xce, 0x4c, 0x3d,
  0xb8, 0xa0, 0x41, 0xbc, 0x35, 0x18, 0xdf, 0xbd, 0xa9, 0x81, 0x6d, 0xbb,
  0xc6, 0x77, 0xa0, 0x3d, 0x74, 0xc9, 0x90, 0x3b, 0x48, 0xf6, 0xff, 0xff,
  0x4c, 0xf6, 0xff, 0xff, 0x0f, 0x00, 0x00, 0x00, 0x4d, 0x4c, 0x49, 0x52,
  0x20, 0x43, 0x6f, 0x6e, 0x76, 0x65, 0x72, 0x74, 0x65, 0x64, 0x2e, 0x00,
  0x01, 0x00, 0x00, 0x00, 0x14, 0x00, 0x00, 0x00, 0x00, 0x00, 0x0e, 0x00,
  0x18, 0x00, 0x14, 0x00, 0x10, 0x00, 0x0c, 0x00, 0x08, 0x00, 0x04, 0x00,
  0x0e, 0x00, 0x00, 0x00, 0x14, 0x00, 0x00, 0x00, 0x1c, 0x00, 0x00, 0x00,
  0xfc, 0x01, 0x00, 0x00, 0x00, 0x02, 0x00, 0x00, 0x04, 0x02, 0x00, 0x00,
  0x04, 0x00, 0x00, 0x00, 0x6d, 0x61, 0x69, 0x6e, 0x00, 0x00, 0x00, 0x00,
  0x08, 0x00, 0x00, 0x00, 0xb4, 0x01, 0x00, 0x00, 0x54, 0x01, 0x00, 0x00,
  0x1c, 0x01, 0x00, 0x00, 0xe0, 0x00, 0x00, 0x00, 0x9c, 0x00, 0x00, 0x00,
  0x74, 0x00, 0x00, 0x00, 0x3c, 0x00, 0x00, 0x00, 0x04, 0x00, 0x00, 0x00,
  0xd6, 0xfe, 0xff, 0xff, 0x14, 0x00, 0x00, 0x00, 0x00, 0x00, 0x00, 0x08,
  0x10, 0x00, 0x00, 0x00, 0x14, 0x00, 0x00, 0x00, 0x03, 0x00, 0x00, 0x00,
  0xdc, 0xf6, 0xff, 0xff, 0x01, 0x00, 0x00, 0x00, 0x12, 0x00, 0x00, 0x00,
  0x03, 0x00, 0x00, 0x00, 0x11, 0x00, 0x00, 0x00, 0x07, 0x00, 0x00, 0x00,
  0x03, 0x00, 0x00, 0x00, 0x0a, 0xff, 0xff, 0xff, 0x14, 0x00, 0x00, 0x00,
  0x00, 0x00, 0x00, 0x08, 0x10, 0x00, 0x00, 0x00, 0x14, 0x00, 0x00, 0x00,
  0x03, 0x00, 0x00, 0x00, 0x10, 0xf7, 0xff, 0xff, 0x01, 0x00, 0x00, 0x00,
  0x11, 0x00, 0x00, 0x00, 0x03, 0x00, 0x00, 0x00, 0x10, 0x00, 0x00, 0x00,
  0x08, 0x00, 0x00, 0x00, 0xff, 0xff, 0xff, 0xff, 0x6e, 0xff, 0xff, 0xff,
  0x0c, 0x00, 0x00, 0x00, 0x10, 0x00, 0x00, 0x00, 0x02, 0x00, 0x00, 0x00,
  0x01, 0x00, 0x00, 0x00, 0x10, 0x00, 0x00, 0x00, 0x02, 0x00, 0x00, 0x00,
  0x0f, 0x00, 0x00, 0x00, 0x09, 0x00, 0x00, 0x00, 0x62, 0xff, 0xff, 0xff,
  0x14, 0x00, 0x00, 0x00, 0x00, 0x00, 0x00, 0x01, 0x1c, 0x00, 0x00, 0x00,
  0x20, 0x00, 0x00, 0x00, 0x01, 0x00, 0x00, 0x00, 0x52, 0xff, 0xff, 0xff,
  0x01, 0x00, 0x00, 0x00, 0x01, 0x00, 0x00, 0x00, 0x00, 0x00, 0x00, 0x01,
  0x01, 0x00, 0x00, 0x00, 0x0f, 0x00, 0x00, 0x00, 0x03, 0x00, 0x00, 0x00,
  0x0e, 0x00, 0x00, 0x00, 0x05, 0x00, 0x00, 0x00, 0x01, 0x00, 0x00, 0x00,
  0x46, 0xff, 0xff, 0xff, 0x10, 0x00, 0x00, 0x00, 0x00, 0x00, 0x00, 0x34,
  0x0c, 0x00, 0x00, 0x00, 0x10, 0x00, 0x00, 0x00, 0xa4, 0xf7, 0xff, 0xff,
  0x01, 0x00, 0x00, 0x00, 0x0e, 0x00, 0x00, 0x00, 0x02, 0x00, 0x00, 0x00,
  0x0d, 0x00, 0x00, 0x00, 0x0a, 0x00, 0x00, 0x00, 0x00, 0x00, 0x0a, 0x00,
  0x10, 0x00, 0x0c, 0x00, 0x08, 0x00, 0x04, 0x00, 0x0a, 0x00, 0x00, 0x00,
  0x0c, 0x00, 0x00, 0x00, 0x10, 0x00, 0x00, 0x00, 0x02, 0x00, 0x00, 0x00,
  0x01, 0x00, 0x00, 0x00, 0x0d, 0x00, 0x00, 0x00, 0x02, 0x00, 0x00, 0x00,
  0x0c, 0x00, 0x00, 0x00, 0x04, 0x00, 0x00, 0x00, 0x00, 0x00, 0x0e, 0x00,
  0x1a, 0x00, 0x14, 0x00, 0x10, 0x00, 0x0c, 0x00, 0x0b, 0x00, 0x04, 0x00,
  0x0e, 0x00, 0x00, 0x00, 0x20, 0x00, 0x00, 0x00, 0x00, 0x00, 0x00, 0x01,
  0x28, 0x00, 0x00, 0x00, 0x2c, 0x00, 0x00, 0x00, 0x01, 0x00, 0x00, 0x00,
  0x00, 0x00, 0x0a, 0x00, 0x10, 0x00, 0x0f, 0x00, 0x08, 0x00, 0x04, 0x00,
  0x0a, 0x00, 0x00, 0x00, 0x01, 0x00, 0x00, 0x00, 0x01, 0x00, 0x00, 0x00,
  0x00, 0x00, 0x00, 0x01, 0x01, 0x00, 0x00, 0x00, 0x0c, 0x00, 0x00, 0x00,
  0x03, 0x00, 0x00, 0x00, 0x0b, 0x00, 0x00, 0x00, 0x06, 0x00, 0x00, 0x00,
  0x02, 0x00, 0x00, 0x00, 0x00, 0x00, 0x0e, 0x00, 0x14, 0x00, 0x00, 0x00,
  0x10, 0x00, 0x0c, 0x00, 0x0b, 0x00, 0x04, 0x00, 0x0e, 0x00, 0x00, 0x00,
  0x10, 0x00, 0x00, 0x00, 0x00, 0x00, 0x00, 0x34, 0x0c, 0x00, 0x00, 0x00,
  0x10, 0x00, 0x00, 0x00, 0x6c, 0xf8, 0xff, 0xff, 0x01, 0x00, 0x00, 0x00,
  0x0b, 0x00, 0x00, 0x00, 0x02, 0x00, 0x00, 0x00, 0x00, 0x00, 0x00, 0x00,
  0x0a, 0x00, 0x00, 0x00, 0x01, 0x00, 0x00, 0x00, 0x12, 0x00, 0x00, 0x00,
  0x01, 0x00, 0x00, 0x00, 0x00, 0x00, 0x00, 0x00, 0x13, 0x00, 0x00, 0x00,
  0x3c, 0x07, 0x00, 0x00, 0xe8, 0x06, 0x00, 0x00, 0x94, 0x06, 0x00, 0x00,
  0x58, 0x06, 0x00, 0x00, 0x18, 0x06, 0x00, 0x00, 0xb8, 0x05, 0x00, 0x00,
  0x70, 0x05, 0x00, 0x00, 0x30, 0x05, 0x00, 0x00, 0xf0, 0x04, 0x00, 0x00,
  0xb0, 0x04, 0x00, 0x00, 0x74, 0x04, 0x00, 0x00, 0xf0, 0x03, 0x00, 0x00,
  0x20, 0x03, 0x00, 0x00, 0x80, 0x02, 0x00, 0x00, 0xfc, 0x01, 0x00, 0x00,
  0x2c, 0x01, 0x00, 0x00, 0xc4, 0x00, 0x00, 0x00, 0x60, 0x00, 0x00, 0x00,
  0x04, 0x00, 0x00, 0x00, 0x26, 0xf9, 0xff, 0xff, 0x00, 0x00, 0x00, 0x01,
  0x14, 0x00, 0x00, 0x00, 0x1c, 0x00, 0x00, 0x00, 0x1c, 0x00, 0x00, 0x00,
  0x13, 0x00, 0x00, 0x00, 0x34, 0x00, 0x00, 0x00, 0x02, 0x00, 0x00, 0x00,
  0xff, 0xff, 0xff, 0xff, 0x01, 0x00, 0x00, 0x00, 0x0c, 0xf9, 0xff, 0xff,
  0x1b, 0x00, 0x00, 0x00, 0x53, 0x74, 0x61, 0x74, 0x65, 0x66, 0x75, 0x6c,
  0x50, 0x61, 0x72, 0x74, 0x69, 0x74, 0x69, 0x6f, 0x6e, 0x65, 0x64, 0x43,
  0x61, 0x6c, 0x6c, 0x5f, 0x31, 0x3a, 0x30, 0x00, 0x02, 0x00, 0x00, 0x00,
  0x01, 0x00, 0x00, 0x00, 0x01, 0x00, 0x00, 0x00, 0x7e, 0xf9, 0xff, 0xff,
  0x00, 0x00, 0x00, 0x01, 0x14, 0x00, 0x00, 0x00, 0x1c, 0x00, 0x00, 0x00,
  0x1c, 0x00, 0x00, 0x00, 0x12, 0x00, 0x00, 0x00, 0x3c, 0x00, 0x00, 0x00,
  0x02, 0x00, 0x00, 0x00, 0xff, 0xff, 0xff, 0xff, 0x0f, 0x00, 0x00, 0x00,
  0x64, 0xf9, 0xff, 0xff, 0x22, 0x00, 0x00, 0x00, 0x73, 0x65, 0x71, 0x75,
  0x65, 0x6e, 0x74, 0x69, 0x61, 0x6c, 0x5f, 0x34, 0x35, 0x5f, 0x31, 0x2f,
  0x64, 0x65, 0x6e, 0x73, 0x65, 0x5f, 0x31, 0x34, 0x30, 0x5f, 0x31, 0x2f,
  0x4d, 0x61, 0x74, 0x4d, 0x75, 0x6c, 0x00, 0x00, 0x02, 0x00, 0x00, 0x00,
  0x01, 0x00, 0x00, 0x00, 0x0f, 0x00, 0x00, 0x00, 0xde, 0xf9, 0xff, 0xff,
  0x00, 0x00, 0x00, 0x01, 0x14, 0x00, 0x00, 0x00, 0x1c, 0x00, 0x00, 0x00,
  0x1c, 0x00, 0x00, 0x00, 0x11, 0x00, 0x00, 0x00, 0x40, 0x00, 0x00, 0x00,
  0x02, 0x00, 0x00, 0x00, 0xff, 0xff, 0xff, 0xff, 0x0a, 0x00, 0x00, 0x00,
  0xc4, 0xf9, 0xff, 0xff, 0x24, 0x00, 0x00, 0x00, 0x73, 0x65, 0x71, 0x75,
  0x65, 0x6e, 0x74, 0x69, 0x61, 0x6c, 0x5f, 0x34, 0x35, 0x5f, 0x31, 0x2f,
  0x66, 0x6c, 0x61, 0x74, 0x74, 0x65, 0x6e, 0x5f, 0x33, 0x38, 0x5f, 0x31,
  0x2f, 0x52, 0x65, 0x73, 0x68, 0x61, 0x70, 0x65, 0x00, 0x00, 0x00, 0x00,
  0x02, 0x00, 0x00, 0x00, 0x01, 0x00, 0x00, 0x00, 0x0a, 0x00, 0x00, 0x00,
  0x42, 0xfa, 0xff, 0xff, 0x00, 0x00, 0x00, 0x01, 0x14, 0x00, 0x00, 0x00,
  0x24, 0x00, 0x00, 0x00, 0x24, 0x00, 0x00, 0x00, 0x10, 0x00, 0x00, 0x00,
  0xa0, 0x00, 0x00, 0x00, 0x04, 0x00, 0x00, 0x00, 0xff, 0xff, 0xff, 0xff,
  0x01, 0x00, 0x00, 0x00, 0x01, 0x00, 0x00, 0x00, 0x0a, 0x00, 0x00, 0x00,
  0x30, 0xfa, 0xff, 0xff, 0x7c, 0x00, 0x00, 0x00, 0x73, 0x65, 0x71, 0x75,
  0x65, 0x6e, 0x74, 0x69, 0x61, 0x6c, 0x5f, 0x34, 0x35, 0x5f, 0x31, 0x2f,
  0x63, 0x6f, 0x6e, 0x76, 0x31, 0x64, 0x5f, 0x33, 0x33, 0x5f, 0x31, 0x2f,
  0x42, 0x69, 0x61, 0x73, 0x41, 0x64, 0x64, 0x3b, 0x73, 0x65, 0x71, 0x75,
  0x65, 0x6e, 0x74, 0x69, 0x61, 0x6c, 0x5f, 0x34, 0x35, 0x5f, 0x31, 0x2f,
  0x63, 0x6f, 0x6e, 0x76, 0x31, 0x64, 0x5f, 0x33, 0x33, 0x5f, 0x31, 0x2f,
  0x63, 0x6f, 0x6e, 0x76, 0x6f, 0x6c, 0x75, 0x74, 0x69, 0x6f, 0x6e, 0x2f,
  0x53, 0x71, 0x75, 0x65, 0x65, 0x7a, 0x65, 0x3b, 0x3b, 0x73, 0x65, 0x71,
  0x75, 0x65, 0x6e, 0x74, 0x69, 0x61, 0x6c, 0x5f, 0x34, 0x35, 0x5f, 0x31,
  0x2f, 0x63, 0x6f, 0x6e, 0x76, 0x31, 0x64, 0x5f, 0x33, 0x33, 0x5f, 0x31,
  0x2f, 0x63, 0x6f, 0x6e, 0x76, 0x6f, 0x6c, 0x75, 0x74, 0x69, 0x6f, 0x6e,
  0x00, 0x00, 0x00, 0x00, 0x04, 0x00, 0x00, 0x00, 0x01, 0x00, 0x00, 0x00,
  0x01, 0x00, 0x00, 0x00, 0x01, 0x00, 0x00, 0x00, 0x0a, 0x00, 0x00, 0x00,
  0x0e, 0xfb, 0xff, 0xff, 0x00, 0x00, 0x00, 0x01, 0x14, 0x00, 0x00, 0x00,
  0x24, 0x00, 0x00, 0x00, 0x24, 0x00, 0x00, 0x00, 0x0f, 0x00, 0x00, 0x00,
  0x54, 0x00, 0x00, 0x00, 0x04, 0x00, 0x00, 0x00, 0xff, 0xff, 0xff, 0xff,
  0x01, 0x00, 0x00, 0x00, 0x02, 0x00, 0x00, 0x00, 0x0a, 0x00, 0x00, 0x00,
  0xfc, 0xfa, 0xff, 0xff, 0x32, 0x00, 0x00, 0x00, 0x73, 0x65, 0x71, 0x75,
  0x65, 0x6e, 0x74, 0x69, 0x61, 0x6c, 0x5f, 0x34, 0x35, 0x5f, 0x31, 0x2f,
  0x63, 0x6f, 0x6e, 0x76, 0x31, 0x64, 0x5f, 0x33, 0x33, 0x5f, 0x31, 0x2f,
  0x63, 0x6f, 0x6e, 0x76, 0x6f, 0x6c, 0x75, 0x74, 0x69, 0x6f, 0x6e, 0x2f,
  0x45, 0x78, 0x70, 0x61, 0x6e, 0x64, 0x44, 0x69, 0x6d, 0x73, 0x00, 0x00,
  0x04, 0x00, 0x00, 0x00, 0x01, 0x00, 0x00, 0x00, 0x01, 0x00, 0x00, 0x00,
  0x02, 0x00, 0x00, 0x00, 0x0a, 0x00, 0x00, 0x00, 0x8e, 0xfb, 0xff, 0xff,
  0x00, 0x00, 0x00, 0x01, 0x14, 0x00, 0x00, 0x00, 0x20, 0x00, 0x00, 0x00,
  0x20, 0x00, 0x00, 0x00, 0x0e, 0x00, 0x00, 0x00, 0x74, 0x00, 0x00, 0x00,
  0x03, 0x00, 0x00, 0x00, 0xff, 0xff, 0xff, 0xff, 0x02, 0x00, 0x00, 0x00,
  0x0a, 0x00, 0x00, 0x00, 0x78, 0xfb, 0xff, 0xff, 0x54, 0x00, 0x00, 0x00,
  0x73, 0x65, 0x71, 0x75, 0x65, 0x6e, 0x74, 0x69, 0x61, 0x6c, 0x5f, 0x34,
  0x35, 0x5f, 0x31, 0x2f, 0x63, 0x6f, 0x6e, 0x76, 0x31, 0x64, 0x5f, 0x33,
  0x32, 0x5f, 0x31, 0x2f, 0x42, 0x69, 0x61, 0x73, 0x41, 0x64, 0x64, 0x3b,
  0x73, 0x65, 0x71, 0x75, 0x65, 0x6e, 0x74, 0x69, 0x61, 0x6c, 0x5f, 0x34,
  0x35, 0x5f, 0x31, 0x2f, 0x63, 0x6f, 0x6e, 0x76, 0x31, 0x64, 0x5f, 0x33,
  0x32, 0x5f, 0x31, 0x2f, 0x63, 0x6f, 0x6e, 0x76, 0x6f, 0x6c, 0x75, 0x74,
  0x69, 0x6f, 0x6e, 0x2f, 0x53, 0x71, 0x75, 0x65, 0x65, 0x7a, 0x65, 0x3b,
  0x00, 0x00, 0x00, 0x00, 0x03, 0x00, 0x00, 0x00, 0x01, 0x00, 0x00, 0x00,
  0x02, 0x00, 0x00, 0x00, 0x0a, 0x00, 0x00, 0x00, 0x2a, 0xfc, 0xff, 0xff,
  0x00, 0x00, 0x00, 0x01, 0x14, 0x00, 0x00, 0x00, 0x24, 0x00, 0x00, 0x00,
  0x24, 0x00, 0x00, 0x00, 0x0d, 0x00, 0x00, 0x00, 0xa0, 0x00, 0x00, 0x00,
  0x04, 0x00, 0x00, 0x00, 0xff, 0xff, 0xff, 0xff, 0x01, 0x00, 0x00, 0x00,
  0x02, 0x00, 0x00, 0x00, 0x0a, 0x00, 0x00, 0x00, 0x18, 0xfc, 0xff, 0xff,
  0x7c, 0x00, 0x00, 0x00, 0x73, 0x65, 0x71, 0x75, 0x65, 0x6e, 0x74, 0x69,
  0x61, 0x6c, 0x5f, 0x34, 0x35, 0x5f, 0x31, 0x2f, 0x63, 0x6f, 0x6e, 0x76,
  0x31, 0x64, 0x5f, 0x33, 0x32, 0x5f, 0x31, 0x2f, 0x42, 0x69, 0x61, 0x73,
  0x41, 0x64, 0x64, 0x3b, 0x73, 0x65, 0x71, 0x75, 0x65, 0x6e, 0x74, 0x69,
  0x61, 0x6c, 0x5f, 0x34, 0x35, 0x5f, 0x31, 0x2f, 0x63, 0x6f, 0x6e, 0x76,
  0x31, 0x64, 0x5f, 0x33, 0x32, 0x5f, 0x31, 0x2f, 0x63, 0x6f, 0x6e, 0x76,
  0x6f, 0x6c, 0x75, 0x74, 0x69, 0x6f, 0x6e, 0x2f, 0x53, 0x71, 0x75, 0x65,
  0x65, 0x7a, 0x65, 0x3b, 0x3b, 0x73, 0x65, 0x71, 0x75, 0x65, 0x6e, 0x74,
  0x69, 0x61, 0x6c, 0x5f, 0x34, 0x35, 0x5f, 0x31, 0x2f, 0x63, 0x6f, 0x6e,
  0x76, 0x31, 0x64, 0x5f, 0x33, 0x32, 0x5f, 0x31, 0x2f, 0x63, 0x6f, 0x6e,
  0x76, 0x6f, 0x6c, 0x75, 0x74, 0x69, 0x6f, 0x6e, 0x00, 0x00, 0x00, 0x00,
  0x04, 0x00, 0x00, 0x00, 0x01, 0x00, 0x00, 0x00, 0x01, 0x00, 0x00, 0x00,
  0x02, 0x00, 0x00, 0x00, 0x0a, 0x00, 0x00, 0x00, 0xf6, 0xfc, 0xff, 0xff,
  0x00, 0x00, 0x00, 0x01, 0x14, 0x00, 0x00, 0x00, 0x24, 0x00, 0x00, 0x00,
  0x24, 0x00, 0x00, 0x00, 0x0c, 0x00, 0x00, 0x00, 0x54, 0x00, 0x00, 0x00,
  0x04, 0x00, 0x00, 0x00, 0xff, 0xff, 0xff, 0xff, 0x01, 0x00, 0x00, 0x00,
  0x04, 0x00, 0x00, 0x00, 0x02, 0x00, 0x00, 0x00, 0xe4, 0xfc, 0xff, 0xff,
  0x32, 0x00, 0x00, 0x00, 0x73, 0x65, 0x71, 0x75, 0x65, 0x6e, 0x74, 0x69,
  0x61, 0x6c, 0x5f, 0x34, 0x35, 0x5f, 0x31, 0x2f, 0x63, 0x6f, 0x6e, 0x76,
  0x31, 0x64, 0x5f, 0x33, 0x32, 0x5f, 0x31, 0x2f, 0x63, 0x6f, 0x6e, 0x76,
  0x6f, 0x6c, 0x75, 0x74, 0x69, 0x6f, 0x6e, 0x2f, 0x45, 0x78, 0x70, 0x61,
  0x6e, 0x64, 0x44, 0x69, 0x6d, 0x73, 0x00, 0x00, 0x04, 0x00, 0x00, 0x00,
  0x01, 0x00, 0x00, 0x00, 0x01, 0x00, 0x00, 0x00, 0x04, 0x00, 0x00, 0x00,
  0x02, 0x00, 0x00, 0x00, 0x8a, 0xfe, 0xff, 0xff, 0x00, 0x00, 0x00, 0x01,
  0x14, 0x00, 0x00, 0x00, 0x14, 0x00, 0x00, 0x00, 0x0b, 0x00, 0x00, 0x00,
  0x00, 0x00, 0x00, 0x02, 0x1c, 0x00, 0x00, 0x00, 0x50, 0xfd, 0xff, 0xff,
  0x0f, 0x00, 0x00, 0x00, 0x61, 0x72, 0x69, 0x74, 0x68, 0x2e, 0x63, 0x6f,
  0x6e, 0x73, 0x74, 0x61, 0x6e, 0x74, 0x39, 0x00, 0x00, 0x00, 0x00, 0x00,
  0xc2, 0xfe, 0xff, 0xff, 0x00, 0x00, 0x00, 0x01, 0x14, 0x00, 0x00, 0x00,
  0x14, 0x00, 0x00, 0x00, 0x0a, 0x00, 0x00, 0x00, 0x00, 0x00, 0x00, 0x02,
  0x1c, 0x00, 0x00, 0x00, 0x88, 0xfd, 0xff, 0xff, 0x0f, 0x00, 0x00, 0x00,
  0x61, 0x72, 0x69, 0x74, 0x68, 0x2e, 0x63, 0x6f, 0x6e, 0x73, 0x74, 0x61,
  0x6e, 0x74, 0x38, 0x00, 0x01, 0x00, 0x00, 0x00, 0x02, 0x00, 0x00, 0x00,
  0x3a, 0xfe, 0xff, 0xff, 0x00, 0x00, 0x00, 0x01, 0x10, 0x00, 0x00, 0x00,
  0x10, 0x00, 0x00, 0x00, 0x09, 0x00, 0x00, 0x00, 0x1c, 0x00, 0x00, 0x00,
  0xc0, 0xfd, 0xff, 0xff, 0x0f, 0x00, 0x00, 0x00, 0x61, 0x72, 0x69, 0x74,
  0x68, 0x2e, 0x63, 0x6f, 0x6e, 0x73, 0x74, 0x61, 0x6e, 0x74, 0x37, 0x00,
  0x02, 0x00, 0x00, 0x00, 0x0f, 0x00, 0x00, 0x00, 0x0a, 0x00, 0x00, 0x00,
  0x76, 0xfe, 0xff, 0xff, 0x00, 0x00, 0x00, 0x01, 0x10, 0x00, 0x00, 0x00,
  0x10, 0x00, 0x00, 0x00, 0x08, 0x00, 0x00, 0x00, 0x1c, 0x00, 0x00, 0x00,
  0xfc, 0xfd, 0xff, 0xff, 0x0f, 0x00, 0x00, 0x00, 0x61, 0x72, 0x69, 0x74,
  0x68, 0x2e, 0x63, 0x6f, 0x6e, 0x73, 0x74, 0x61, 0x6e, 0x74, 0x36, 0x00,
  0x02, 0x00, 0x00, 0x00, 0x01, 0x00, 0x00, 0x00, 0x0f, 0x00, 0x00, 0x00,
  0xb2, 0xfe, 0xff, 0xff, 0x00, 0x00, 0x00, 0x01, 0x10, 0x00, 0x00, 0x00,
  0x10, 0x00, 0x00, 0x00, 0x07, 0x00, 0x00, 0x00, 0x1c, 0x00, 0x00, 0x00,
  0x38, 0xfe, 0xff, 0xff, 0x0f, 0x00, 0x00, 0x00, 0x61, 0x72, 0x69, 0x74,
  0x68, 0x2e, 0x63, 0x6f, 0x6e, 0x73, 0x74, 0x61, 0x6e, 0x74, 0x35, 0x00,
  0x04, 0x00, 0x00, 0x00, 0x0a, 0x00, 0x00, 0x00, 0x01, 0x00, 0x00, 0x00,
  0x03, 0x00, 0x00, 0x00, 0x02, 0x00, 0x00, 0x00, 0xf6, 0xfe, 0xff, 0xff,
  0x00, 0x00, 0x00, 0x01, 0x10, 0x00, 0x00, 0x00, 0x10, 0x00, 0x00, 0x00,
  0x06, 0x00, 0x00, 0x00, 0x1c, 0x00, 0x00, 0x00, 0x7c, 0xfe, 0xff, 0xff,
  0x0f, 0x00, 0x00, 0x00, 0x61, 0x72, 0x69, 0x74, 0x68, 0x2e, 0x63, 0x6f,
  0x6e, 0x73, 0x74, 0x61, 0x6e, 0x74, 0x34, 0x00, 0x04, 0x00, 0x00, 0x00,
  0x0a, 0x00, 0x00, 0x00, 0x01, 0x00, 0x00, 0x00, 0x02, 0x00, 0x00, 0x00,
  0x0a, 0x00, 0x00, 0x00, 0x00, 0x00, 0x16, 0x00, 0x1c, 0x00, 0x18, 0x00,
  0x17, 0x00, 0x10, 0x00, 0x0c, 0x00, 0x08, 0x00, 0x00, 0x00, 0x00, 0x00,
  0x00, 0x00, 0x07, 0x00, 0x16, 0x00, 0x00, 0x00, 0x00, 0x00, 0x00, 0x01,
  0x14, 0x00, 0x00, 0x00, 0x14, 0x00, 0x00, 0x00, 0x05, 0x00, 0x00, 0x00,
  0x00, 0x00, 0x00, 0x02, 0x1c, 0x00, 0x00, 0x00, 0xdc, 0xfe, 0xff, 0xff,
  0x0f, 0x00, 0x00, 0x00, 0x61, 0x72, 0x69, 0x74, 0x68, 0x2e, 0x63, 0x6f,
  0x6e, 0x73, 0x74, 0x61, 0x6e, 0x74, 0x33, 0x00, 0x01, 0x00, 0x00, 0x00,
  0x03, 0x00, 0x00, 0x00, 0x8e, 0xff, 0xff, 0xff, 0x00, 0x00, 0x00, 0x01,
  0x10, 0x00, 0x00, 0x00, 0x10, 0x00, 0x00, 0x00, 0x04, 0x00, 0x00, 0x00,
  0x1c, 0x00, 0x00, 0x00, 0x14, 0xff, 0xff, 0xff, 0x0f, 0x00, 0x00, 0x00,
  0x61, 0x72, 0x69, 0x74, 0x68, 0x2e, 0x63, 0x6f, 0x6e, 0x73, 0x74, 0x61,
  0x6e, 0x74, 0x32, 0x00, 0x01, 0x00, 0x00, 0x00, 0x01, 0x00, 0x00, 0x00,
  0xc6, 0xff, 0xff, 0xff, 0x00, 0x00, 0x00, 0x01, 0x10, 0x00, 0x00, 0x00,
  0x10, 0x00, 0x00, 0x00, 0x03, 0x00, 0x00, 0x00, 0x1c, 0x00, 0x00, 0x00,
  0x4c, 0xff, 0xff, 0xff, 0x0f, 0x00, 0x00, 0x00, 0x61, 0x72, 0x69, 0x74,
  0x68, 0x2e, 0x63, 0x6f, 0x6e, 0x73, 0x74, 0x61, 0x6e, 0x74, 0x31, 0x00,
  0x01, 0x00, 0x00, 0x00, 0x0a, 0x00, 0x00, 0x00, 0x00, 0x00, 0x16, 0x00,
  0x18, 0x00, 0x14, 0x00, 0x00, 0x00, 0x10, 0x00, 0x0c, 0x00, 0x08, 0x00,
  0x00, 0x00, 0x00, 0x00, 0x00, 0x00, 0x07, 0x00, 0x16, 0x00, 0x00, 0x00,
  0x00, 0x00, 0x00, 0x01, 0x10, 0x00, 0x00, 0x00, 0x10, 0x00, 0x00, 0x00,
  0x02, 0x00, 0x00, 0x00, 0x1c, 0x00, 0x00, 0x00, 0x9c, 0xff, 0xff, 0xff,
  0x0e, 0x00, 0x00, 0x00, 0x61, 0x72, 0x69, 0x74, 0x68, 0x2e, 0x63, 0x6f,
  0x6e, 0x73, 0x74, 0x61, 0x6e, 0x74, 0x00, 0x00, 0x01, 0x00, 0x00, 0x00,
  0x0a, 0x00, 0x00, 0x00, 0x00, 0x00, 0x16, 0x00, 0x1c, 0x00, 0x18, 0x00,
  0x00, 0x00, 0x14, 0x00, 0x10, 0x00, 0x0c, 0x00, 0x00, 0x00, 0x00, 0x00,
  0x08, 0x00, 0x07, 0x00, 0x16, 0x00, 0x00, 0x00, 0x00, 0x00, 0x00, 0x01,
  0x14, 0x00, 0x00, 0x00, 0x24, 0x00, 0x00, 0x00, 0x24, 0x00, 0x00, 0x00,
  0x01, 0x00, 0x00, 0x00, 0x38, 0x00, 0x00, 0x00, 0x03, 0x00, 0x00, 0x00,
  0xff, 0xff, 0xff, 0xff, 0x04, 0x00, 0x00, 0x00, 0x02, 0x00, 0x00, 0x00,
  0x04, 0x00, 0x04, 0x00, 0x04, 0x00, 0x00, 0x00, 0x17, 0x00, 0x00, 0x00,
  0x73, 0x65, 0x72, 0x76, 0x69, 0x6e, 0x67, 0x5f, 0x64, 0x65, 0x66, 0x61,
  0x75, 0x6c, 0x74, 0x5f, 0x69, 0x6e, 0x70, 0x75, 0x74, 0x3a, 0x30, 0x00,
  0x03, 0x00, 0x00, 0x00, 0x01, 0x00, 0x00, 0x00, 0x04, 0x00, 0x00, 0x00,
  0x02, 0x00, 0x00, 0x00, 0x04, 0x00, 0x00, 0x00, 0x40, 0x00, 0x00, 0x00,
  0x24, 0x00, 0x00, 0x00, 0x14, 0x00, 0x00, 0x00, 0x04, 0x00, 0x00, 0x00,
  0xdc, 0xff, 0xff, 0xff, 0x09, 0x00, 0x00, 0x00, 0x00, 0x00, 0x00, 0x09,
  0xe8, 0xff, 0xff, 0xff, 0x16, 0x00, 0x00, 0x00, 0x00, 0x00, 0x00, 0x16,
  0xf4, 0xff, 0xff, 0xff, 0x03, 0x00, 0x00, 0x00, 0x00, 0x00, 0x00, 0x03,
  0x0c, 0x00, 0x0c, 0x00, 0x0b, 0x00, 0x00, 0x00, 0x00, 0x00, 0x04, 0x00,
  0x0c, 0x00, 0x00, 0x00, 0x46, 0x00, 0x00, 0x00, 0x00, 0x00, 0x00, 0x46
};
const int modell_cnn_temp_len = 5076;
